node {
  name: "global_step/Initializer/zeros"
  op: "Const"
  attr {
    key: "_class"
    value {
      list {
        s: "loc:@global_step"
      }
    }
  }
  attr {
    key: "_output_shapes"
    value {
      list {
        shape {
        }
      }
    }
  }
  attr {
    key: "dtype"
    value {
      type: DT_INT64
    }
  }
  attr {
    key: "value"
    value {
      tensor {
        dtype: DT_INT64
        tensor_shape {
        }
        int64_val: 0
      }
    }
  }
}
node {
  name: "global_step"
  op: "VarHandleOp"
  attr {
    key: "_class"
    value {
      list {
        s: "loc:@global_step"
      }
    }
  }
  attr {
    key: "_output_shapes"
    value {
      list {
        shape {
        }
      }
    }
  }
  attr {
    key: "container"
    value {
      s: ""
    }
  }
  attr {
    key: "dtype"
    value {
      type: DT_INT64
    }
  }
  attr {
    key: "shape"
    value {
      shape {
      }
    }
  }
  attr {
    key: "shared_name"
    value {
      s: "global_step"
    }
  }
}
node {
  name: "global_step/IsInitialized/VarIsInitializedOp"
  op: "VarIsInitializedOp"
  input: "global_step"
  attr {
    key: "_output_shapes"
    value {
      list {
        shape {
        }
      }
    }
  }
}
node {
  name: "global_step/Assign"
  op: "AssignVariableOp"
  input: "global_step"
  input: "global_step/Initializer/zeros"
  attr {
    key: "dtype"
    value {
      type: DT_INT64
    }
  }
}
node {
  name: "global_step/Read/ReadVariableOp"
  op: "ReadVariableOp"
  input: "global_step"
  attr {
    key: "_output_shapes"
    value {
      list {
        shape {
        }
      }
    }
  }
  attr {
    key: "dtype"
    value {
      type: DT_INT64
    }
  }
}
node {
  name: "global_step/VarIsInitializedOp"
  op: "VarIsInitializedOp"
  input: "global_step"
  attr {
    key: "_output_shapes"
    value {
      list {
        shape {
        }
      }
    }
  }
}
node {
  name: "global_step/cond"
  op: "If"
  input: "global_step/VarIsInitializedOp"
  input: "global_step"
  input: "global_step/Initializer/zeros"
  attr {
    key: "Tcond"
    value {
      type: DT_BOOL
    }
  }
  attr {
    key: "Tin"
    value {
      list {
        type: DT_RESOURCE
        type: DT_INT64
      }
    }
  }
  attr {
    key: "Tout"
    value {
      list {
        type: DT_INT64
      }
    }
  }
  attr {
    key: "_lower_using_switch_merge"
    value {
      b: true
    }
  }
  attr {
    key: "_output_shapes"
    value {
      list {
        shape {
        }
      }
    }
  }
  attr {
    key: "else_branch"
    value {
      func {
        name: "global_step_cond_false_364101"
      }
    }
  }
  attr {
    key: "output_shapes"
    value {
      list {
        shape {
        }
      }
    }
  }
  attr {
    key: "then_branch"
    value {
      func {
        name: "global_step_cond_true_364100"
      }
    }
  }
}
node {
  name: "global_step/cond/Identity"
  op: "Identity"
  input: "global_step/cond"
  attr {
    key: "T"
    value {
      type: DT_INT64
    }
  }
  attr {
    key: "_output_shapes"
    value {
      list {
        shape {
        }
      }
    }
  }
}
node {
  name: "global_step/add/y"
  op: "Const"
  attr {
    key: "_output_shapes"
    value {
      list {
        shape {
        }
      }
    }
  }
  attr {
    key: "dtype"
    value {
      type: DT_INT64
    }
  }
  attr {
    key: "value"
    value {
      tensor {
        dtype: DT_INT64
        tensor_shape {
        }
        int64_val: 0
      }
    }
  }
}
node {
  name: "global_step/add"
  op: "AddV2"
  input: "global_step/cond/Identity"
  input: "global_step/add/y"
  attr {
    key: "T"
    value {
      type: DT_INT64
    }
  }
  attr {
    key: "_output_shapes"
    value {
      list {
        shape {
        }
      }
    }
  }
}
node {
  name: "normalize_element/component_0"
  op: "Const"
  device: "/device:CPU:0"
  attr {
    key: "_output_shapes"
    value {
      list {
        shape {
          dim {
            size: 313
          }
        }
      }
    }
  }
  attr {
    key: "dtype"
    value {
      type: DT_DOUBLE
    }
  }
  attr {
    key: "value"
    value {
      tensor {
        dtype: DT_DOUBLE
        tensor_shape {
          dim {
            size: 313
          }
        }
        tensor_content: "\366\026r!x`\365?\347\263\2351\035\031\320\277g1\022\337g\276\353?F/\233I\226(\327?V\244e\243\347\306\333?\233\330\027\222\350\244\333\277\212cM8\227\006\327\277\255}\246\257\227\365\306\277\221\335\345\246\210\377P?f\236y+\257\304\377?\255}\246\257\227\365\306\277\262\364\265\234m\331\324?F/\233I\226(\327?\317\201b\330\355\320\344?\037\304cL1I\341\277\375\251\n\3250Z\341?\262y\377\312\3438\364?x+&g/\274\377\277\205\360\340\362\360U\361?\323\350\335\254\374\324\354\277\337\366,2?o\351?\304\006\254\006d0\364\277\221\335\345\246\210\377P?\212cM8\227\006\327\277\263\014\230~\2342\340?\311\215SI\205}\362?\375\251\n\3250Z\341?:\264\344w\014\210\366?\262\364\265\234m\331\324?n\334\214tO\021\363?\002\247\024\231\024Y\003@\221\335\345\246\210\377P?y\326\240\374\026\017\347\277y\326\240\374\026\017\347\277\261\332u\246\223\222\372?\331i\200\366\276w\331?#\025B\322\2259\307?\212cM8\227\006\327\277\275s\023S\2536\350\277T\245\362!I\361\241\277\312<\216DG5\262\277\221\335\345\246\210\377P?\027\206P\003\221\374\355\277\262\364\265\234m\331\324?\200i9\260\317\010\363\277\262y\377\312\3438\364?K\256\370\377\323\205\352\277RZ\242\037\221O\001\300\332{v`\265\316\370\277\262\364\265\234m\331\324?\022\2362\345\277U\331\277F/\233I\226(\327?RZ\242\037\221O\001\300\036\031\351\266I\366\371\277#\025B\322\2259\307?OA\221\263\214\177\366\277\262y\377\312\3438\364?\037\304cL1I\341\277\221\335\345\246\210\377P?\212cM8\227\006\327\277\255}\246\257\227\365\306\277#\025B\322\2259\307?\023\240wxD\233\302?\212cM8\227\006\327\277\212cM8\227\006\327\277\347\263\2351\035\031\320\2779\tj\342$5\357?\221\335\345\246\210\377P?\365.T\003\247\271\360\2779\025[S\274\341\374?\375\251\n\3250Z\341?\262\364\265\234m\331\324?\006VZ=\346\371\273?\304\006\254\006d0\364\277\031\'#\370\351q\273\277\212cM8\227\006\327\277F/\233I\226(\327?\262y\377\312\3438\364?\002\247\024\231\024Y\003@\037\304cL1I\341\277\365.T\003\247\271\360\277\262\364\265\234m\331\324?W\274G\205\026 \347?\261\316\2045\374\345\354?\263\014\230~\2342\340?\267k\305\211C\275\262?\006VZ=\346\371\273?GG}+\305\201\342?\022\2362\345\277U\331\277K\256\370\377\323\205\352\277\312<\216DG5\262\277\323\350\335\254\374\324\354\277f\236y+\257\304\377?z\356\202\336Eh\322\277\255}\246\257\227\365\306\277\304\006\254\006d0\364\277K\256\370\377\323\205\352\277$&\t\262\266\031\007@*?\032\036\273\351\361?\255}\246\257\227\365\306\277#\025B\322\2259\307?[#\303Y%$\357\277\262y\377\312\3438\364?#\025B\322\2259\307?y\326\240\374\026\017\347\277\323\350\335\254\374\324\354\277\263\377w\203/\017\003@y\326\240\374\026\017\347\277y\326\240\374\026\017\347\277\006VZ=\346\371\273?\177\343\300\367\2032\004\300\361\233\273O\356\277\344\277\275\362p\t\351\223\313\277\375\251\n\3250Z\341?.\023\375>\021\364\335\277\212cM8\227\006\327\277\275\362p\t\351\223\313\277\255}\246\257\227\365\306\277\221\335\345\246\210\377P?\235\010\334UFW\302\277.\023\375>\021\364\335\277\366\026r!x`\365?\212cM8\227\006\327\277\242\177\353B\034;\320?\304\006\254\006d0\364\277\337\002\036\243\326\033\367?\241Y\272\333\252G\350?\275\362p\t\351\223\313\277\262y\377\312\3438\364?\242\177\353B\034;\320?y\326\240\374\026\017\347\277z\356\202\336Eh\322\277\006VZ=\346\371\273?\375\251\n\3250Z\341?\347\263\2351\035\031\320\277\227}\215.qM\361\277\261\316\2045\374\345\354?\375\251\n\3250Z\341?\235\010\334UFW\302\277\037\304cL1I\341\277\261\316\2045\374\345\354?\221\335\345\246\210\377P?#\025B\322\2259\307?\261\316\2045\374\345\354?\036\031\351\266I\366\371\277#\025B\322\2259\307?\036\031\351\266I\366\371\277\351\236\261\213\n\301\002\300\212cM8\227\006\327\277\037\304cL1I\341\277\227}\215.qM\361\277\375\251\n\3250Z\341?\r\037\325.\202\370\345?\212cM8\227\006\327\277\255}\246\257\227\365\306\277*?\032\036\273\351\361?\221\335\345\246\210\377P?T\245\362!I\361\241\277F/\233I\226(\327?x+&g/\274\377\277\351\336JP\020\026\336?\036\031\351\266I\366\371\277\227}\215.qM\361\277\323\350\335\254\374\324\354\277\375\251\n\3250Z\341?\361\233\273O\356\277\344\277\212cM8\227\006\327\277\212cM8\227\006\327\277\204QW\316\240\257\367?\262y\377\312\3438\364?\255}\246\257\227\365\306\277K\256\370\377\323\205\352\277\333&\361\365\234!\340\277\221\335\345\246\210\377P?y\326\240\374\026\017\347\277x+&g/\274\377\277\262y\377\312\3438\364?y\326\240\374\026\017\347\277\306tB\335\200\255\007@5-=5\353:\370\277g=\003P\377j\371?#\025B\322\2259\307?\351\336JP\020\026\336?\221\335\345\246\210\377P?9\tj\342$5\357?\337\366,2?o\351?\221\335\345\246\210\377P?#\025B\322\2259\307?\331i\200\366\276w\331?\304\006\254\006d0\364\277\221\335\345\246\210\377P?\212cM8\227\006\327\277T\245\362!I\361\241\277\255}\246\257\227\365\306\277\261\332u\246\223\222\372?\361\217\312\336V\023\367\277\006VZ=\346\371\273?\037\304cL1I\341\277F/\233I\226(\327?[#\303Y%$\357\277T\245\362!I\361\241\277\276\t\242B\2001\002@#\025B\322\2259\307?\312\023\314\001\321S\001@ASn\234\\.\360?\375\251\n\3250Z\341?\361\217\312\336V\023\367\277F/\233I\226(\327?\247\376H\371Y\230\343\277\323\350\335\254\374\324\354\277E\245\375\312X\332\n@y\326\240\374\026\017\347\277\247\376H\371Y\230\343\277\221\335\345\246\210\377P?F/\233I\226(\327?\255}\246\257\227\365\306\277\366\026r!x`\365?\261\316\2045\374\345\354?\223\336\003\n!\247\367\277\221\335\345\246\210\377P?\016\261>Xe{\002@K\242\007\217<\331\374\277\212cM8\227\006\327\277\037\304cL1I\341\277\267k\305\211C\275\262?\022\2362\345\277U\331\277\262\364\265\234m\331\324?)\224\237\210\323\226\352?\261\316\2045\374\345\354?\361\217\312\336V\023\367\277y\326\240\374\026\017\347\277)\224\237\210\323\226\352?[#\303Y%$\357\277\323\350\335\254\374\324\354\277\036\031\351\266I\366\371\277\212cM8\227\006\327\277\337\002\036\243\326\033\367?#\025B\322\2259\307?\227}\215.qM\361\277*?\032\036\273\351\361?\037\304cL1I\341\277\304\006\254\006d0\364\277\221\335\345\246\210\377P?:\264\344w\014\210\366?\375\251\n\3250Z\341?\267k\305\211C\275\262?\267k\305\211C\275\262?\263\014\230~\2342\340?\031\'#\370\351q\273\277\"\270r\333\231\234\363\277\262y\377\312\3438\364?\375\251\n\3250Z\341?\221\335\345\246\210\377P?\361\217\312\336V\023\367\277\006VZ=\346\371\273?\212cM8\227\006\327\277\227}\215.qM\361\277\037\304cL1I\341\277J\212\014,\347\327\313?\337\002\036\243\326\033\367?z\356\202\336Eh\322\277\275\362p\t\351\223\313\277\304\006\254\006d0\364\277.\023\375>\021\364\335\277W\274G\205\026 \347?\255}\246\257\227\365\306\277y\326\240\374\026\017\347\277\212cM8\227\006\327\277\255}\246\257\227\365\306\277\212cM8\227\006\327\277F/\233I\226(\327?ca\326\242\305p\342\277\304\006\254\006d0\364\277\261\316\2045\374\345\354?\243V\304\237\216F\n@\261\316\2045\374\345\354?\037\304cL1I\341\277\242\177\353B\034;\320?\037\304cL1I\341\277\312<\216DG5\262\277\221\335\345\246\210\377P?\037\304cL1I\341\277lb\005-\233\347\001@f\236y+\257\304\377?\037\304cL1I\341\277\227}\215.qM\361\277\177\343\300\367\2032\004\300\037\304cL1I\341\277*?\032\036\273\351\361?x+&g/\274\377\277z\356\202\336Eh\322\277\262y\377\312\3438\364?\242\177\353B\034;\320?\311\215SI\205}\362?z\356\202\336Eh\322\277\205\360\340\362\360U\361?\323\350\335\254\374\324\354\277\323\350\335\254\374\324\354\277\275s\023S\2536\350\277\036\031\351\266I\366\371\277\317\201b\330\355\320\344?\323\350\335\254\374\324\354\277-\003a\254A\001\243?9\tj\342$5\357?\205\344\357\201Y\251\343?\304\006\254\006d0\364\277\361\217\312\336V\023\367\277#\025B\322\2259\307?\241Y\272\333\252G\350?F/\233I\226(\327?W\274G\205\026 \347?#\025B\322\2259\307?y\326\240\374\026\017\347\277"
      }
    }
  }
}
node {
  name: "normalize_element/component_1"
  op: "Const"
  device: "/device:CPU:0"
  attr {
    key: "_output_shapes"
    value {
      list {
        shape {
          dim {
            size: 313
          }
        }
      }
    }
  }
  attr {
    key: "dtype"
    value {
      type: DT_DOUBLE
    }
  }
  attr {
    key: "value"
    value {
      tensor {
        dtype: DT_DOUBLE
        tensor_shape {
          dim {
            size: 313
          }
        }
        tensor_content: "\002\261\010[\346D\353\277\002\261\010[\346D\353\277\002\261\010[\346D\353\277\037\227\264d,\205\323?\037\227\264d,\205\323?\020\244\336_\te\367?\002\261\010[\346D\353\277\020\244\336_\te\367?\037\227\264d,\205\323?\002\261\010[\346D\353\277\002\261\010[\346D\353\277\002\261\010[\346D\353\277\002\261\010[\346D\353\277\002\261\010[\346D\353\277\002\261\010[\346D\353\277\002\261\010[\346D\353\277\002\261\010[\346D\353\277\020\244\336_\te\367?\037\227\264d,\205\323?\020\244\336_\te\367?\002\261\010[\346D\353\277\020\244\336_\te\367?\002\261\010[\346D\353\277\002\261\010[\346D\353\277\037\227\264d,\205\323?\037\227\264d,\205\323?\037\227\264d,\205\323?\002\261\010[\346D\353\277\002\261\010[\346D\353\277\002\261\010[\346D\353\277\002\261\010[\346D\353\277\002\261\010[\346D\353\277\245\027\335PR\344\366\277\020\244\336_\te\367?\002\261\010[\346D\353\277\037\227\264d,\205\323?\002\261\010[\346D\353\277\037\227\264d,\205\323?\037\227\264d,\205\323?\037\227\264d,\205\323?\002\261\010[\346D\353\277\002\261\010[\346D\353\277\002\261\010[\346D\353\277\002\261\010[\346D\353\277\002\261\010[\346D\353\277\002\261\010[\346D\353\277\020\244\336_\te\367?\020\244\336_\te\367?\020\244\336_\te\367?\002\261\010[\346D\353\277\002\261\010[\346D\353\277\002\261\010[\346D\353\277\020\244\336_\te\367?\020\244\336_\te\367?\020\244\336_\te\367?\002\261\010[\346D\353\277\002\261\010[\346D\353\277\002\261\010[\346D\353\277\002\261\010[\346D\353\277\020\244\336_\te\367?\002\261\010[\346D\353\277\037\227\264d,\205\323?re\256(P\202\321\277\002\261\010[\346D\353\277\037\227\264d,\205\323?\002\261\010[\346D\353\277\002\261\010[\346D\353\277\037\227\264d,\205\323?\037\227\264d,\205\323?\002\261\010[\346D\353\277\037\227\264d,\205\323?\002\261\010[\346D\353\277\037\227\264d,\205\323?\020\244\336_\te\367?\002\261\010[\346D\353\277\020\244\336_\te\367?\002\261\010[\346D\353\277\020\244\336_\te\367?\020\244\336_\te\367?\020\244\336_\te\367?\037\227\264d,\205\323?\002\261\010[\346D\353\277\002\261\010[\346D\353\277\002\261\010[\346D\353\277\002\261\010[\346D\353\277\002\261\010[\346D\353\277\037\227\264d,\205\323?\037\227\264d,\205\323?\002\261\010[\346D\353\277\020\244\336_\te\367?\002\261\010[\346D\353\277\020\244\336_\te\367?\037\227\264d,\205\323?\002\261\010[\346D\353\277\002\261\010[\346D\353\277\020\244\336_\te\367?\020\244\336_\te\367?\002\261\010[\346D\353\277\002\261\010[\346D\353\277\037\227\264d,\205\323?\020\244\336_\te\367?\002\261\010[\346D\353\277\002\261\010[\346D\353\277\037\227\264d,\205\323?\037\227\264d,\205\323?\020\244\336_\te\367?\002\261\010[\346D\353\277\020\244\336_\te\367?\002\261\010[\346D\353\277\002\261\010[\346D\353\277\020\244\336_\te\367?\020\244\336_\te\367?\020\244\336_\te\367?\037\227\264d,\205\323?\002\261\010[\346D\353\277\002\261\010[\346D\353\277\002\261\010[\346D\353\277\020\244\336_\te\367?\037\227\264d,\205\323?\002\261\010[\346D\353\277\002\261\010[\346D\353\277\002\261\010[\346D\353\277\002\261\010[\346D\353\277\002\261\010[\346D\353\277\020\244\336_\te\367?\002\261\010[\346D\353\277\037\227\264d,\205\323?\002\261\010[\346D\353\277\037\227\264d,\205\323?\037\227\264d,\205\323?\020\244\336_\te\367?\002\261\010[\346D\353\277\037\227\264d,\205\323?\002\261\010[\346D\353\277\002\261\010[\346D\353\277\020\244\336_\te\367?\002\261\010[\346D\353\277\037\227\264d,\205\323?\037\227\264d,\205\323?\020\244\336_\te\367?\002\261\010[\346D\353\277\037\227\264d,\205\323?\002\261\010[\346D\353\277\037\227\264d,\205\323?\020\244\336_\te\367?\002\261\010[\346D\353\277\020\244\336_\te\367?\020\244\336_\te\367?\002\261\010[\346D\353\277\002\261\010[\346D\353\277\020\244\336_\te\367?\002\261\010[\346D\353\277\002\261\010[\346D\353\277\037\227\264d,\205\323?\037\227\264d,\205\323?\002\261\010[\346D\353\277\020\244\336_\te\367?\020\244\336_\te\367?\002\261\010[\346D\353\277\020\244\336_\te\367?\002\261\010[\346D\353\277\020\244\336_\te\367?\002\261\010[\346D\353\277\002\261\010[\346D\353\277\002\261\010[\346D\353\277\020\244\336_\te\367?\002\261\010[\346D\353\277\002\261\010[\346D\353\277\037\227\264d,\205\323?\002\261\010[\346D\353\277\002\261\010[\346D\353\277\002\261\010[\346D\353\277\002\261\010[\346D\353\277\002\261\010[\346D\353\277\020\244\336_\te\367?\020\244\336_\te\367?\037\227\264d,\205\323?\245\027\335PR\344\366\277\002\261\010[\346D\353\277\037\227\264d,\205\323?re\256(P\202\321\277\002\261\010[\346D\353\277\002\261\010[\346D\353\277\020\244\336_\te\367?\037\227\264d,\205\323?\037\227\264d,\205\323?\002\261\010[\346D\353\277\037\227\264d,\205\323?\037\227\264d,\205\323?\020\244\336_\te\367?\002\261\010[\346D\353\277\020\244\336_\te\367?\002\261\010[\346D\353\277\020\244\336_\te\367?re\256(P\202\321\277\020\244\336_\te\367?\037\227\264d,\205\323?\020\244\336_\te\367?\037\227\264d,\205\323?\020\244\336_\te\367?\037\227\264d,\205\323?\002\261\010[\346D\353\277\037\227\264d,\205\323?\002\261\010[\346D\353\277\002\261\010[\346D\353\277\002\261\010[\346D\353\277\020\244\336_\te\367?\037\227\264d,\205\323?\002\261\010[\346D\353\277\020\244\336_\te\367?\002\261\010[\346D\353\277\245\027\335PR\344\366\277\037\227\264d,\205\323?\037\227\264d,\205\323?\002\261\010[\346D\353\277\002\261\010[\346D\353\277\037\227\264d,\205\323?\002\261\010[\346D\353\277\020\244\336_\te\367?\002\261\010[\346D\353\277\002\261\010[\346D\353\277\020\244\336_\te\367?\020\244\336_\te\367?\002\261\010[\346D\353\277\002\261\010[\346D\353\277\002\261\010[\346D\353\277\002\261\010[\346D\353\277\002\261\010[\346D\353\277\037\227\264d,\205\323?\020\244\336_\te\367?\020\244\336_\te\367?\037\227\264d,\205\323?\020\244\336_\te\367?\037\227\264d,\205\323?\020\244\336_\te\367?\002\261\010[\346D\353\277\002\261\010[\346D\353\277\002\261\010[\346D\353\277\020\244\336_\te\367?\002\261\010[\346D\353\277\020\244\336_\te\367?\020\244\336_\te\367?\002\261\010[\346D\353\277\002\261\010[\346D\353\277\002\261\010[\346D\353\277\002\261\010[\346D\353\277\002\261\010[\346D\353\277\002\261\010[\346D\353\277\020\244\336_\te\367?\020\244\336_\te\367?\020\244\336_\te\367?\002\261\010[\346D\353\277\037\227\264d,\205\323?\020\244\336_\te\367?\002\261\010[\346D\353\277\020\244\336_\te\367?\245\027\335PR\344\366\277\002\261\010[\346D\353\277\002\261\010[\346D\353\277\002\261\010[\346D\353\277\002\261\010[\346D\353\277\002\261\010[\346D\353\277\020\244\336_\te\367?\002\261\010[\346D\353\277\002\261\010[\346D\353\277\002\261\010[\346D\353\277\020\244\336_\te\367?\002\261\010[\346D\353\277\037\227\264d,\205\323?\002\261\010[\346D\353\277\002\261\010[\346D\353\277\020\244\336_\te\367?\020\244\336_\te\367?\002\261\010[\346D\353\277\002\261\010[\346D\353\277\002\261\010[\346D\353\277\020\244\336_\te\367?\002\261\010[\346D\353\277\020\244\336_\te\367?\002\261\010[\346D\353\277\002\261\010[\346D\353\277\002\261\010[\346D\353\277\002\261\010[\346D\353\277\037\227\264d,\205\323?\020\244\336_\te\367?\020\244\336_\te\367?\020\244\336_\te\367?\002\261\010[\346D\353\277\002\261\010[\346D\353\277\020\244\336_\te\367?\002\261\010[\346D\353\277\002\261\010[\346D\353\277\002\261\010[\346D\353\277\037\227\264d,\205\323?\037\227\264d,\205\323?\002\261\010[\346D\353\277\020\244\336_\te\367?\020\244\336_\te\367?\020\244\336_\te\367?\020\244\336_\te\367?\002\261\010[\346D\353\277\020\244\336_\te\367?\002\261\010[\346D\353\277\002\261\010[\346D\353\277\037\227\264d,\205\323?\020\244\336_\te\367?\020\244\336_\te\367?\037\227\264d,\205\323?\002\261\010[\346D\353\277\002\261\010[\346D\353\277\002\261\010[\346D\353\277\002\261\010[\346D\353\277\002\261\010[\346D\353\277"
      }
    }
  }
}
node {
  name: "normalize_element/component_2"
  op: "Const"
  device: "/device:CPU:0"
  attr {
    key: "_output_shapes"
    value {
      list {
        shape {
          dim {
            size: 313
          }
        }
      }
    }
  }
  attr {
    key: "dtype"
    value {
      type: DT_DOUBLE
    }
  }
  attr {
    key: "value"
    value {
      tensor {
        dtype: DT_DOUBLE
        tensor_shape {
          dim {
            size: 313
          }
        }
        tensor_content: "\337V\233\326\033G\360\277\231Jp\316\337\324\350\277\013\020\2659\025!\360\277)\225M\335\007\022\322?\n\000\223\277\267\227\317\277\326A\2520\303;\367?=\201\242\265\024\005\352\277\\f-Q\376\350\357?dT}\006\301:\326?\325\t\240\367\230\375\354\277\312[kR\350\305\356\277\312[kR\350\305\356\277W\324\263ZW\235\361\277qP\364\214\235\345\331\277\237\241\n!\270\360\347\277\000\303\271Z\222\327\354\277\210\344g\020)\223\360\277G\353i\177\343h\001@\021\240\240\223Nv\340?N\277\302\264\376\221\370?,|\323\275\213\261\354\277\327@cb\214@\360?X4\246RN\220\345\277\252O?\306h(\346\277\0229\344\222\246\242\325?)\225M\335\007\022\322?\373C7I\355\006\344?\337V\233\326\033G\360\277\013\020\2659\025!\360\277\033w\004\306\002^\357\277\337V\233\326\033G\360\277H/\327Z\305<\350\277R}\031\010\177\201\362\277\326A\2520\303;\367?qP\364\214\235\345\331\277)\225M\335\007\022\322?X4\246RN\220\345\277\t\331\361\316!\336\334\277\0229\344\222\246\242\325?\0229\344\222\246\242\325?2\323m\020d\315\353\277\001\302r\214[\334\345\277\306\002Cc\242\263\341\277\325\t\240\367\230\375\354\277\325\t\240\367\230\375\354\277\325\t\240\367\230\375\354\277t \373\366\350T\362?~\320\2758\007\203\376?\\f-Q\376\350\357?\325\t\240\367\230\375\354\277=\201\242\265\024\005\352\277X4\246RN\220\345\277~\320\2758\007\203\376?G\353i\177\343h\001@\\f-Q\376\350\357?\306\002Cc\242\263\341\277}63kx[\362\277M\206q\255\235X\347\277s\3517\214\365\021\357\277\\f-Q\376\350\357?S\335\013\000vt\346\277dT}\006\301:\326?i9uJ\327\343\342\277\001\302r\214[\334\345\277 \\\374\t\031\007\314\277n\220\017\235\257\377\341\277\325\t\240\367\230\375\354\277a\234=a\3559\240?\n\000\223\277\267\227\317\277\312[kR\350\305\356\277\021\240\240\223Nv\340?qP\364\214\235\345\331\277\235\010\307!`\304\322\277\001\373\303\223\274\025\367?\013\020\2659\025!\360\277\001\373\303\223\274\025\367?qP\364\214\235\345\331\277\001\373\303\223\274\025\367?\251(\236\325\322n\343?T\025\0269\240\262\360?\332\356\227;\257\246\311\277z>DB`7\340\2777*\010c<\351\352\277\361\274\243\224\322\210\350\277\332\377\000\204C+\361\277\312[kR\350\305\356\277\0229\344\222\246\242\325?|Q\317\232\224\273\251?\331\307\366J\031\355\326\277\253\207I\377\222f\360?\216\234;)/\235\352\277t \373\366\350T\362?\021\240\240\223Nv\340?\312[kR\350\305\356\277\252O?\306h(\346\277T\025\0269\240\262\360?t \373\366\350T\362?\325\t\240\367\230\375\354\277\337V\233\326\033G\360\277\021\240\240\223Nv\340?\\f-Q\376\350\357?\001\302r\214[\334\345\277z>DB`7\340\277a\234=a\3559\240?\331\307\366J\031\355\326\277t \373\366\350T\362?,|\323\275\213\261\354\277t \373\366\350T\362?n\220\017\235\257\377\341\277\325\t\240\367\230\375\354\277\327p\\\336\007:\002@t \373\366\350T\362?\001\373\303\223\274\025\367?\021\240\240\223Nv\340?\216\234;)/\235\352\277\304\004\321\377\017\252\357\277S\335\013\000vt\346\277G\0106j/\203\345?)\225M\335\007\022\322?X4\246RN\220\345\277s\3517\214\365\021\357\277\337V\233\326\033G\360\277\252O?\306h(\346\277\361\274\243\224\322\210\350\277~\320\2758\007\203\376?\332\377\000\204C+\361\277dT}\006\301:\326?\216\234;)/\235\352\277\021\240\240\223Nv\340?\021\240\240\223Nv\340?t \373\366\350T\362?S\335\013\000vt\346\277|Q\317\232\224\273\251?\325\t\240\367\230\375\354\277S\335\013\000vt\346\277\001\373\303\223\274\025\367?~\227l1\246I\355\277dT}\006\301:\326?W\r\005b\270\326\342?~\320\2758\007\203\376?\325\t\240\367\230\375\354\277\021\240\240\223Nv\340?qP\364\214\235\345\331\277W\r\005b\270\326\342?\327p\\\336\007:\002@\312[kR\350\305\356\277t \373\366\350T\362?\246`\250(6D\003@\325\t\240\367\230\375\354\277\001\302r\214[\334\345\277\253\207I\377\222f\360?S\335\013\000vt\346\277\312[kR\350\305\356\277\021\240\240\223Nv\340?\356v\006\376\300\372\244?\332\377\000\204C+\361\277\327@cb\214@\360?\253\207I\377\222f\360?,|\323\275\213\261\354\277\020\204\033w9W\003@\337V\233\326\033G\360\277\020\204\033w9W\003@\001\302r\214[\334\345\277\306\002Cc\242\263\341\277\337V\233\326\033G\360\277t \373\366\350T\362?\325\t\240\367\230\375\354\277\331\307\366J\031\355\326\277[\364\212B<v\335\277\325\t\240\367\230\375\354\277,|\323\275\213\261\354\277qP\364\214\235\345\331\277\325\t\240\367\230\375\354\277\224\363\325{\007\271\351\277t \373\366\350T\362?\020\204\033w9W\003@W\r\005b\270\326\342?\005\271\032\347<\005\361\277s\3517\214\365\021\357\277\332\356\227;\257\246\311\277\001\302r\214[\334\345\277\332\377\000\204C+\361\277\224\363\325{\007\271\351\277\251(\236\325\322n\343?|Q\317\232\224\273\251?)\225M\335\007\022\322?,|\323\275\213\261\354\277\021\240\240\223Nv\340?)\225M\335\007\022\322?~\320\2758\007\203\376?M\206q\255\235X\347\277\326A\2520\303;\367?z>DB`7\340\277T\025\0269\240\262\360?\362\230Cg<\211\273\277~\320\2758\007\203\376?\0229\344\222\246\242\325?\001\373\303\223\274\025\367?)\225M\335\007\022\322?\326A\2520\303;\367?)\225M\335\007\022\322?\t\331\361\316!\336\334\277)\225M\335\007\022\322?s\3517\214\365\021\357\277\252O?\306h(\346\277\252O?\306h(\346\277c\034s\315\226\374\373?\021\240\240\223Nv\340?\312[kR\350\305\356\277\253\207I\377\222f\360?\241a\357\020\246\326\337\277R}\031\010\177\201\362\277\t\331\361\316!\336\334\277\331\307\366J\031\355\326\277\325\t\240\367\230\375\354\277\001\302r\214[\334\345\277\0229\344\222\246\242\325?\001\302r\214[\334\345\277\001\373\303\223\274\025\367?n\220\017\235\257\377\341\277\252O?\306h(\346\277\\f-Q\376\350\357?t \373\366\350T\362?s\3517\214\365\021\357\277\306\002Cc\242\263\341\277,|\323\275\213\261\354\277\013\020\2659\025!\360\277\325\t\240\367\230\375\354\277\021\240\240\223Nv\340?~\320\2758\007\203\376?\001\373\303\223\274\025\367?W\r\005b\270\326\342?\\f-Q\376\350\357?dT}\006\301:\326?\001\373\303\223\274\025\367?\325\t\240\367\230\375\354\277z>DB`7\340\277\306\002Cc\242\263\341\277~\320\2758\007\203\376?\252O?\306h(\346\277N\277\302\264\376\221\370?\001\373\303\223\274\025\367?=\201\242\265\024\005\352\277\256F\347 JQ\361\277z>DB`7\340\277\001\302r\214[\334\345\277\022\307A\204\344/\343\277\224\363\325{\007\271\351\277t \373\366\350T\362?\001\373\303\223\274\025\367?\251(\236\325\322n\343?=\201\242\265\024\005\352\277\021\240\240\223Nv\340?\327@cb\214@\360?z>DB`7\340\277t \373\366\350T\362?R}\031\010\177\201\362\277\033w\004\306\002^\357\2771r4J6\337\360\277\252O?\306h(\346\277\216\234;)/\235\352\277\033w\004\306\002^\357\277~\320\2758\007\203\376?n\220\017\235\257\377\341\277B\330<\010\355 \351\277H/\327Z\305<\350\277\001\373\303\223\274\025\367?=\201\242\265\024\005\352\277dT}\006\301:\326?\325\t\240\367\230\375\354\277,|\323\275\213\261\354\277\327@cb\214@\360?\\f-Q\376\350\357?qP\364\214\235\345\331\277\325\t\240\367\230\375\354\277\251\357L\316q5\362\277t \373\366\350T\362?,|\323\275\213\261\354\277t \373\366\350T\362?\033w\004\306\002^\357\277\332\377\000\204C+\361\277M\206q\255\235X\347\277s\3517\214\365\021\357\277\0229\344\222\246\242\325?\\f-Q\376\350\357?~\320\2758\007\203\376?2\014\277\027\305\006\375?H/\327Z\305<\350\277\361\274\243\224\322\210\350\277c\034s\315\226\374\373?,|\323\275\213\261\354\277\332\377\000\204C+\361\277\312[kR\350\305\356\277)\225M\335\007\022\322?dT}\006\301:\326?,|\323\275\213\261\354\277\001\373\303\223\274\025\367?\326A\2520\303;\367?\\f-Q\376\350\357?N\277\302\264\376\221\370?\033w\004\306\002^\357\277N\277\302\264\376\221\370?z>DB`7\340\277\312[kR\350\305\356\277)\225M\335\007\022\322?~\320\2758\007\203\376?G\353i\177\343h\001@dT}\006\301:\326?\312[kR\350\305\356\277s\3517\214\365\021\357\277\312[kR\350\305\356\277qP\364\214\235\345\331\277\001\302r\214[\334\345\277"
      }
    }
  }
}
node {
  name: "normalize_element/component_3"
  op: "Const"
  device: "/device:CPU:0"
  attr {
    key: "_output_shapes"
    value {
      list {
        shape {
          dim {
            size: 313
          }
        }
      }
    }
  }
  attr {
    key: "dtype"
    value {
      type: DT_DOUBLE
    }
  }
  attr {
    key: "value"
    value {
      tensor {
        dtype: DT_DOUBLE
        tensor_shape {
          dim {
            size: 313
          }
        }
        tensor_content: "\322\347\237;\232(\360\277\213\304A\016\1773\344\277\322\347\237;\232(\360\277\321\364uP\364\265/\277v\007r\023t7\330?\256\276O=\346\340\355?\223\035A1f=\350\277\314\265\267O\210/\344?\240\201\021\t\212/\300\2770D\270\227\004\325\367\277\325x\246\317\244\263\356\277W\224\037\315\215-\362\277\367AR\034\255h\365\277\363$\206\220a?\330\277\"\316\354\350\321\241\326\277\213\304A\016\1773\344\277\243>9\343)\306\361\277]O\205$\'\307\002@\321\364uP\364\265/\277\367\214\332m\222+\362?\363o\016\342F\002\345\277\367\214\332m\222+\362?\"8\334E\007\034\315\277\202\212\251\366\347\340\311\277\321\364uP\364\265/\277\246F\351\016\257\037\300?\202kB\353\227)\340\277\322\347\237;\232(\360\277\322\347\237;\232(\360\277W\224\037\315\215-\362\277\367AR\034\255h\365\277\341r\207J\223+\320\277\363$\206\220a?\330\277\217\341\r\232\312\\\361?\363$\206\220a?\330\277\246F\351\016\257\037\300?4\200\353.\240\265\336\277\202\212\251\366\347\340\311\277\205\222Y\"m:\370?dUs\315\245#\320?R\302\333\222\'\307\341\277\347\241N\255\355\225\306?\352\026\017\277_\370\340\277\325x\246\317\244\263\356\2774\313s\200\205x\353\277\223\322\270\337\200z\333\277\336g\266\225VC\354?\237\252\352\302e=\t@u\274\351\301\216t\353?\223\035A1f=\350\277\223\035A1f=\350\277\213\304A\016\1773\344\277\367\214\332m\222+\362?\342\373\004\266\032\314\004@\336g\266\225VC\354?\352\026\017\277_\370\340\277\322\347\237;\232(\360\277\363$\206\220a?\330\277\223\035A1f=\350\277\245eP\032\377\326\351?RwSAB\004\325\277\240\201\021\t\212/\300\277\371\342\345m\260\370\251\277\341\334v\247\310\245\306\277\202\212\251\366\347\340\311\277\341r\207J\223+\320\277\223\035A1f=\350\277\341r\207J\223+\320\2774\254\014u5\301\321?\234v@TMG\354\277\240\201\021\t\212/\300\277\352\026\017\277_\370\340\277\005\270\035\313\337\233\346?\205\222Y\"m:\370?\322\347\237;\232(\360\277\367\214\332m\222+\362?\363$\206\220a?\330\277\321\364uP\364\265/\277\363$\206\220a?\330\277\314\265\267O\210/\344?\246F\351\016\257\037\300?RwSAB\004\325\277\341r\207J\223+\320\277\223\322\270\337\200z\333\277\277?\354\240U\374\362\277\325x\246\317\244\263\356\277\246F\351\016\257\037\300?\223\322\270\337\200z\333\277\321\364uP\364\265/\277s\340Z\334\236&\360?\374\310\r\005.\014\351\277\367\214\332m\222+\362?[\033\333\265\016\321\345\277\004\"\r(\025\026\355\277\202\212\251\366\347\340\311\277\314\265\267O\210/\344?\367\214\332m\222+\362?\217\226\205H\345\231\364\277\234v@TMG\354\277\240\201\021\t\212/\300\277\336g\266\225VC\354?\246F\351\016\257\037\300?\314\037\247\254\275\251\352\277\341r\207J\223+\320\277\026\265\244b\223r\333?\367\214\332m\222+\362?W\224\037\315\215-\362\277\226Q\353\237~3\005@\"8\334E\007\034\315\277[\033\333\265\016\321\345\277\330\'\253h\3705\006@\336g\266\225VC\354?|9Z\377\2050\364?\240\201\021\t\212/\300\277\374\310\r\005.\014\351\277+rt]\236n\347\277\202\212\251\366\347\340\311\277\303\\\270,\241%\340?\321\364uP\364\265/\277\223\322\270\337\200z\333\277\234v@TMG\354\277\322\347\237;\232(\360\277\223\322\270\337\200z\333\277\202kB\353\227)\340\277\367\214\332m\222+\362?\234v@TMG\354\277\363$\206\220a?\330\277;\223l\017b\367\360\277\341\334v\247\310\245\306\277\246F\351\016\257\037\300?\367\214\332m\222+\362?\202\212\251\366\347\340\311\277\202kB\353\227)\340\277RwSAB\004\325\277\240\201\021\t\212/\300\277\022\230\330\326GI\376?\004\"\r(\025\026\355\277\363$\206\220a?\330\277v\007r\023t7\330?\367\214\332m\222+\362?\325x\246\317\244\263\356\277\223\322\270\337\200z\333\277\363$\206\220a?\330\277\246F\351\016\257\037\300?\330\'\253h\3705\006@l\315\331\373\334\344\355\277\367\214\332m\222+\362?\032\376j1r8\007@[\033\333\265\016\321\345\277\246F\351\016\257\037\300?s\340Z\334\236&\360?\202\212\251\366\347\340\311\277C\354k2I\001\365\277\223\322\270\337\200z\333\277\363$\206\220a?\330\277\277?\354\240U\374\362\277\367\214\332m\222+\362?\314\265\267O\210/\344?R\302\333\222\'\307\341\277\\\324*\372\353:\010@\234v@TMG\354\277\\\324*\372\353:\010@\207O\201\374\014\321\311?\352\026\017\277_\370\340\277\234v@TMG\354\277s\340Z\334\236&\360?[\033\333\265\016\321\345\277RwSAB\004\325\277+rt]\236n\347\277W\224\037\315\215-\362\277\213\304A\016\1773\344\277\363$\206\220a?\330\277[\033\333\265\016\321\345\277\202 \272\231\262f\323\277\367\214\332m\222+\362?\\\324*\372\353:\010@\246F\351\016\257\037\300?\246F\351\016\257\037\300?\310\230\353\303<\006\367\277dUs\315\245#\320?\325x\246\317\244\263\356\277\325x\246\317\244\263\356\277\223\035A1f=\350\277\246F\351\016\257\037\300?\202kB\353\227)\340\277\240\201\021\t\212/\300\277\234v@TMG\354\277\321\364uP\364\265/\277\202kB\353\227)\340\277\215\353XETD\374?\223\035A1f=\350\277C7\364\203.\304\361?\223\322\270\337\200z\333\277\021\245k\016\213.\003@\303\306\247\211\326\237\346\277\t?\331\263`?\372?\321\364uP\364\265/\277s\340Z\334\236&\360?\321\364uP\364\265/\277`8\247AZ\372\362?\240\201\021\t\212/\300\277\325x\246\317\244\263\356\277\341r\207J\223+\320\277\310\230\353\303<\006\367\277\374\310\r\005.\014\351\277\223\322\270\337\200z\333\277\022\230\330\326GI\376?\223\322\270\337\200z\333\277\325x\246\317\244\263\356\277\336g\266\225VC\354?4\313s\200\205x\353\277\202\212\251\366\347\340\311\277v\007r\023t7\330?\311\326\007\341\340R\263?\223\322\270\337\200z\333\277\213\304A\016\1773\344\277\321\364uP\364\265/\277+rt]\236n\347\277\t?\331\263`?\372?\363$\206\220a?\330\277\223\322\270\337\200z\333\277\336g\266\225VC\354?\367\214\332m\222+\362?\234v@TMG\354\277\352\026\017\277_\370\340\277=$s\243l\202\357\277\207=\206%\376\217\360\277\325x\246\317\244\263\356\277\240\201\021\t\212/\300\277\215\353XETD\374?\000\346\331\220y5\366?\341r\207J\223+\320\277u\274\351\301\216t\353?\240\201\021\t\212/\300\277\022\230\330\326GI\376?\223\322\270\337\200z\333\277\363$\206\220a?\330\277\352\026\017\277_\370\340\277\215\370\353|\227)\001@\363o\016\342F\002\345\277\330\'\253h\3705\006@s\340Z\334\236&\360?4\200\353.\240\265\336\277\367AR\034\255h\365\277R\302\333\222\'\307\341\277dUs\315\245#\320?\276LX\325\226r\263\277\234v@TMG\354\277\325\016\267ro9\350?\022\230\330\326GI\376?\246F\351\016\257\037\300?\314\037\247\254\275\251\352\277\240\201\021\t\212/\300\277\367\214\332m\222+\362?\303{\0378\361\334\331\277\367\214\332m\222+\362?\240\201\021\t\212/\300\2774\313s\200\205x\353\277W\224\037\315\215-\362\277d)R\207\020\030\335\277;\223l\017b\367\360\2774\313s\200\205x\353\277\t?\331\263`?\372?\341r\207J\223+\320\277d)R\207\020\030\335\277\341r\207J\223+\320\277|9Z\377\2050\364?\363$\206\220a?\330\277\240\201\021\t\212/\300\277\223\322\270\337\200z\333\277l\315\331\373\334\344\355\277v\007r\023t7\330?d\n\353{\300`\343?\363$\206\220a?\330\277\367AR\034\255h\365\277\004\"\r(\025\026\355\277\367\214\332m\222+\362?\322\347\237;\232(\360\277\367\214\332m\222+\362?\357\350R\371\305^\361\277\325x\246\317\244\263\356\277\223\035A1f=\350\277\310\230\353\303<\006\367\277\246F\351\016\257\037\300?\336g\266\225VC\354?\355=&\3664\t\371?\215\370\353|\227)\001@\341r\207J\223+\320\277\223\322\270\337\200z\333\277\t?\331\263`?\372?+rt]\236n\347\277\325x\246\317\244\263\356\277\325x\246\317\244\263\356\277\363$\206\220a?\330\277\347\241N\255\355\225\306?l\315\331\373\334\344\355\277s\340Z\334\236&\360?\024\216\215+\276a\363?d\n\353{\300`\343?\215\353XETD\374?\357\350R\371\305^\361\277\t?\331\263`?\372?4\200\353.\240\265\336\277l\315\331\373\334\344\355\277\240\201\021\t\212/\300\277\215\353XETD\374?]O\205$\'\307\002@\240\201\021\t\212/\300\277l\315\331\373\334\344\355\2774\313s\200\205x\353\277C\354k2I\001\365\277\223\322\270\337\200z\333\277dUs\315\245#\320?"
      }
    }
  }
}
node {
  name: "normalize_element/component_4"
  op: "Const"
  device: "/device:CPU:0"
  attr {
    key: "_output_shapes"
    value {
      list {
        shape {
          dim {
            size: 313
          }
        }
      }
    }
  }
  attr {
    key: "dtype"
    value {
      type: DT_INT64
    }
  }
  attr {
    key: "value"
    value {
      tensor {
        dtype: DT_INT64
        tensor_shape {
          dim {
            size: 313
          }
        }
        tensor_content: "P\000\000\000\000\000\000\000M\000\000\000\000\000\000\000P\000\000\000\000\000\000\000J\000\000\000\000\000\000\000L\000\000\000\000\000\000\000O\000\000\000\000\000\000\000R\000\000\000\000\000\000\000L\000\000\000\000\000\000\000G\000\000\000\000\000\000\000I\000\000\000\000\000\000\000R\000\000\000\000\000\000\000N\000\000\000\000\000\000\000J\000\000\000\000\000\000\000R\000\000\000\000\000\000\000I\000\000\000\000\000\000\000H\000\000\000\000\000\000\000J\000\000\000\000\000\000\000F\000\000\000\000\000\000\000K\000\000\000\000\000\000\000O\000\000\000\000\000\000\000L\000\000\000\000\000\000\000F\000\000\000\000\000\000\000M\000\000\000\000\000\000\000H\000\000\000\000\000\000\000M\000\000\000\000\000\000\000N\000\000\000\000\000\000\000R\000\000\000\000\000\000\000Q\000\000\000\000\000\000\000P\000\000\000\000\000\000\000P\000\000\000\000\000\000\000L\000\000\000\000\000\000\000H\000\000\000\000\000\000\000I\000\000\000\000\000\000\000K\000\000\000\000\000\000\000P\000\000\000\000\000\000\000O\000\000\000\000\000\000\000H\000\000\000\000\000\000\000M\000\000\000\000\000\000\000N\000\000\000\000\000\000\000O\000\000\000\000\000\000\000L\000\000\000\000\000\000\000I\000\000\000\000\000\000\000Q\000\000\000\000\000\000\000M\000\000\000\000\000\000\000L\000\000\000\000\000\000\000I\000\000\000\000\000\000\000N\000\000\000\000\000\000\000I\000\000\000\000\000\000\000N\000\000\000\000\000\000\000L\000\000\000\000\000\000\000Q\000\000\000\000\000\000\000J\000\000\000\000\000\000\000F\000\000\000\000\000\000\000H\000\000\000\000\000\000\000H\000\000\000\000\000\000\000R\000\000\000\000\000\000\000G\000\000\000\000\000\000\000G\000\000\000\000\000\000\000J\000\000\000\000\000\000\000I\000\000\000\000\000\000\000P\000\000\000\000\000\000\000I\000\000\000\000\000\000\000N\000\000\000\000\000\000\000K\000\000\000\000\000\000\000K\000\000\000\000\000\000\000N\000\000\000\000\000\000\000M\000\000\000\000\000\000\000F\000\000\000\000\000\000\000Q\000\000\000\000\000\000\000G\000\000\000\000\000\000\000J\000\000\000\000\000\000\000Q\000\000\000\000\000\000\000N\000\000\000\000\000\000\000H\000\000\000\000\000\000\000O\000\000\000\000\000\000\000J\000\000\000\000\000\000\000P\000\000\000\000\000\000\000Q\000\000\000\000\000\000\000O\000\000\000\000\000\000\000H\000\000\000\000\000\000\000Q\000\000\000\000\000\000\000R\000\000\000\000\000\000\000F\000\000\000\000\000\000\000R\000\000\000\000\000\000\000Q\000\000\000\000\000\000\000R\000\000\000\000\000\000\000Q\000\000\000\000\000\000\000Q\000\000\000\000\000\000\000P\000\000\000\000\000\000\000N\000\000\000\000\000\000\000R\000\000\000\000\000\000\000L\000\000\000\000\000\000\000L\000\000\000\000\000\000\000O\000\000\000\000\000\000\000J\000\000\000\000\000\000\000F\000\000\000\000\000\000\000L\000\000\000\000\000\000\000H\000\000\000\000\000\000\000N\000\000\000\000\000\000\000G\000\000\000\000\000\000\000J\000\000\000\000\000\000\000M\000\000\000\000\000\000\000G\000\000\000\000\000\000\000I\000\000\000\000\000\000\000I\000\000\000\000\000\000\000G\000\000\000\000\000\000\000L\000\000\000\000\000\000\000F\000\000\000\000\000\000\000K\000\000\000\000\000\000\000P\000\000\000\000\000\000\000F\000\000\000\000\000\000\000N\000\000\000\000\000\000\000O\000\000\000\000\000\000\000J\000\000\000\000\000\000\000Q\000\000\000\000\000\000\000G\000\000\000\000\000\000\000N\000\000\000\000\000\000\000O\000\000\000\000\000\000\000G\000\000\000\000\000\000\000P\000\000\000\000\000\000\000L\000\000\000\000\000\000\000O\000\000\000\000\000\000\000R\000\000\000\000\000\000\000R\000\000\000\000\000\000\000I\000\000\000\000\000\000\000G\000\000\000\000\000\000\000L\000\000\000\000\000\000\000Q\000\000\000\000\000\000\000M\000\000\000\000\000\000\000L\000\000\000\000\000\000\000H\000\000\000\000\000\000\000N\000\000\000\000\000\000\000N\000\000\000\000\000\000\000H\000\000\000\000\000\000\000Q\000\000\000\000\000\000\000I\000\000\000\000\000\000\000H\000\000\000\000\000\000\000K\000\000\000\000\000\000\000N\000\000\000\000\000\000\000I\000\000\000\000\000\000\000P\000\000\000\000\000\000\000G\000\000\000\000\000\000\000O\000\000\000\000\000\000\000J\000\000\000\000\000\000\000I\000\000\000\000\000\000\000Q\000\000\000\000\000\000\000F\000\000\000\000\000\000\000F\000\000\000\000\000\000\000J\000\000\000\000\000\000\000I\000\000\000\000\000\000\000M\000\000\000\000\000\000\000K\000\000\000\000\000\000\000L\000\000\000\000\000\000\000G\000\000\000\000\000\000\000F\000\000\000\000\000\000\000M\000\000\000\000\000\000\000J\000\000\000\000\000\000\000O\000\000\000\000\000\000\000J\000\000\000\000\000\000\000F\000\000\000\000\000\000\000M\000\000\000\000\000\000\000I\000\000\000\000\000\000\000F\000\000\000\000\000\000\000R\000\000\000\000\000\000\000L\000\000\000\000\000\000\000M\000\000\000\000\000\000\000M\000\000\000\000\000\000\000R\000\000\000\000\000\000\000Q\000\000\000\000\000\000\000G\000\000\000\000\000\000\000H\000\000\000\000\000\000\000O\000\000\000\000\000\000\000M\000\000\000\000\000\000\000J\000\000\000\000\000\000\000J\000\000\000\000\000\000\000F\000\000\000\000\000\000\000K\000\000\000\000\000\000\000M\000\000\000\000\000\000\000P\000\000\000\000\000\000\000O\000\000\000\000\000\000\000P\000\000\000\000\000\000\000J\000\000\000\000\000\000\000Q\000\000\000\000\000\000\000N\000\000\000\000\000\000\000O\000\000\000\000\000\000\000L\000\000\000\000\000\000\000P\000\000\000\000\000\000\000K\000\000\000\000\000\000\000Q\000\000\000\000\000\000\000H\000\000\000\000\000\000\000I\000\000\000\000\000\000\000M\000\000\000\000\000\000\000N\000\000\000\000\000\000\000F\000\000\000\000\000\000\000O\000\000\000\000\000\000\000K\000\000\000\000\000\000\000N\000\000\000\000\000\000\000K\000\000\000\000\000\000\000I\000\000\000\000\000\000\000L\000\000\000\000\000\000\000L\000\000\000\000\000\000\000P\000\000\000\000\000\000\000K\000\000\000\000\000\000\000N\000\000\000\000\000\000\000Q\000\000\000\000\000\000\000K\000\000\000\000\000\000\000G\000\000\000\000\000\000\000I\000\000\000\000\000\000\000P\000\000\000\000\000\000\000L\000\000\000\000\000\000\000O\000\000\000\000\000\000\000H\000\000\000\000\000\000\000Q\000\000\000\000\000\000\000L\000\000\000\000\000\000\000H\000\000\000\000\000\000\000O\000\000\000\000\000\000\000N\000\000\000\000\000\000\000H\000\000\000\000\000\000\000M\000\000\000\000\000\000\000P\000\000\000\000\000\000\000L\000\000\000\000\000\000\000F\000\000\000\000\000\000\000I\000\000\000\000\000\000\000K\000\000\000\000\000\000\000Q\000\000\000\000\000\000\000N\000\000\000\000\000\000\000Q\000\000\000\000\000\000\000Q\000\000\000\000\000\000\000I\000\000\000\000\000\000\000G\000\000\000\000\000\000\000H\000\000\000\000\000\000\000L\000\000\000\000\000\000\000N\000\000\000\000\000\000\000G\000\000\000\000\000\000\000I\000\000\000\000\000\000\000G\000\000\000\000\000\000\000H\000\000\000\000\000\000\000R\000\000\000\000\000\000\000H\000\000\000\000\000\000\000R\000\000\000\000\000\000\000F\000\000\000\000\000\000\000L\000\000\000\000\000\000\000L\000\000\000\000\000\000\000N\000\000\000\000\000\000\000K\000\000\000\000\000\000\000N\000\000\000\000\000\000\000L\000\000\000\000\000\000\000R\000\000\000\000\000\000\000O\000\000\000\000\000\000\000L\000\000\000\000\000\000\000M\000\000\000\000\000\000\000P\000\000\000\000\000\000\000G\000\000\000\000\000\000\000I\000\000\000\000\000\000\000M\000\000\000\000\000\000\000K\000\000\000\000\000\000\000P\000\000\000\000\000\000\000O\000\000\000\000\000\000\000Q\000\000\000\000\000\000\000H\000\000\000\000\000\000\000R\000\000\000\000\000\000\000N\000\000\000\000\000\000\000G\000\000\000\000\000\000\000N\000\000\000\000\000\000\000F\000\000\000\000\000\000\000F\000\000\000\000\000\000\000H\000\000\000\000\000\000\000F\000\000\000\000\000\000\000I\000\000\000\000\000\000\000F\000\000\000\000\000\000\000N\000\000\000\000\000\000\000L\000\000\000\000\000\000\000K\000\000\000\000\000\000\000R\000\000\000\000\000\000\000R\000\000\000\000\000\000\000G\000\000\000\000\000\000\000L\000\000\000\000\000\000\000Q\000\000\000\000\000\000\000H\000\000\000\000\000\000\000P\000\000\000\000\000\000\000J\000\000\000\000\000\000\000J\000\000\000\000\000\000\000P\000\000\000\000\000\000\000K\000\000\000\000\000\000\000J\000\000\000\000\000\000\000I\000\000\000\000\000\000\000F\000\000\000\000\000\000\000G\000\000\000\000\000\000\000R\000\000\000\000\000\000\000F\000\000\000\000\000\000\000P\000\000\000\000\000\000\000J\000\000\000\000\000\000\000R\000\000\000\000\000\000\000P\000\000\000\000\000\000\000R\000\000\000\000\000\000\000M\000\000\000\000\000\000\000I\000\000\000\000\000\000\000H\000\000\000\000\000\000\000O\000\000\000\000\000\000\000I\000\000\000\000\000\000\000Q\000\000\000\000\000\000\000I\000\000\000\000\000\000\000R\000\000\000\000\000\000\000R\000\000\000\000\000\000\000N\000\000\000\000\000\000\000G\000\000\000\000\000\000\000I\000\000\000\000\000\000\000J\000\000\000\000\000\000\000R\000\000\000\000\000\000\000K\000\000\000\000\000\000\000K\000\000\000\000\000\000\000M\000\000\000\000\000\000\000K\000\000\000\000\000\000\000"
      }
    }
  }
}
node {
  name: "normalize_element/component_5"
  op: "Const"
  device: "/device:CPU:0"
  attr {
    key: "_output_shapes"
    value {
      list {
        shape {
          dim {
            size: 313
          }
        }
      }
    }
  }
  attr {
    key: "dtype"
    value {
      type: DT_INT64
    }
  }
  attr {
    key: "value"
    value {
      tensor {
        dtype: DT_INT64
        tensor_shape {
          dim {
            size: 313
          }
        }
        tensor_content: "\003\000\000\000\000\000\000\000\001\000\000\000\000\000\000\000\003\000\000\000\000\000\000\000\001\000\000\000\000\000\000\000\002\000\000\000\000\000\000\000\001\000\000\000\000\000\000\000\003\000\000\000\000\000\000\000\001\000\000\000\000\000\000\000\001\000\000\000\000\000\000\000\002\000\000\000\000\000\000\000\003\000\000\000\000\000\000\000\003\000\000\000\000\000\000\000\003\000\000\000\000\000\000\000\001\000\000\000\000\000\000\000\002\000\000\000\000\000\000\000\001\000\000\000\000\000\000\000\003\000\000\000\000\000\000\000\001\000\000\000\000\000\000\000\001\000\000\000\000\000\000\000\001\000\000\000\000\000\000\000\001\000\000\000\000\000\000\000\001\000\000\000\000\000\000\000\001\000\000\000\000\000\000\000\003\000\000\000\000\000\000\000\001\000\000\000\000\000\000\000\001\000\000\000\000\000\000\000\001\000\000\000\000\000\000\000\003\000\000\000\000\000\000\000\003\000\000\000\000\000\000\000\003\000\000\000\000\000\000\000\001\000\000\000\000\000\000\000\003\000\000\000\000\000\000\000\003\000\000\000\000\000\000\000\001\000\000\000\000\000\000\000\001\000\000\000\000\000\000\000\001\000\000\000\000\000\000\000\001\000\000\000\000\000\000\000\003\000\000\000\000\000\000\000\001\000\000\000\000\000\000\000\001\000\000\000\000\000\000\000\002\000\000\000\000\000\000\000\002\000\000\000\000\000\000\000\001\000\000\000\000\000\000\000\003\000\000\000\000\000\000\000\002\000\000\000\000\000\000\000\003\000\000\000\000\000\000\000\001\000\000\000\000\000\000\000\001\000\000\000\000\000\000\000\001\000\000\000\000\000\000\000\003\000\000\000\000\000\000\000\003\000\000\000\000\000\000\000\001\000\000\000\000\000\000\000\001\000\000\000\000\000\000\000\001\000\000\000\000\000\000\000\001\000\000\000\000\000\000\000\001\000\000\000\000\000\000\000\003\000\000\000\000\000\000\000\002\000\000\000\000\000\000\000\002\000\000\000\000\000\000\000\001\000\000\000\000\000\000\000\003\000\000\000\000\000\000\000\001\000\000\000\000\000\000\000\002\000\000\000\000\000\000\000\002\000\000\000\000\000\000\000\001\000\000\000\000\000\000\000\003\000\000\000\000\000\000\000\003\000\000\000\000\000\000\000\001\000\000\000\000\000\000\000\003\000\000\000\000\000\000\000\001\000\000\000\000\000\000\000\001\000\000\000\000\000\000\000\001\000\000\000\000\000\000\000\002\000\000\000\000\000\000\000\001\000\000\000\000\000\000\000\003\000\000\000\000\000\000\000\001\000\000\000\000\000\000\000\001\000\000\000\000\000\000\000\001\000\000\000\000\000\000\000\001\000\000\000\000\000\000\000\001\000\000\000\000\000\000\000\001\000\000\000\000\000\000\000\001\000\000\000\000\000\000\000\002\000\000\000\000\000\000\000\001\000\000\000\000\000\000\000\003\000\000\000\000\000\000\000\003\000\000\000\000\000\000\000\001\000\000\000\000\000\000\000\001\000\000\000\000\000\000\000\001\000\000\000\000\000\000\000\001\000\000\000\000\000\000\000\002\000\000\000\000\000\000\000\001\000\000\000\000\000\000\000\001\000\000\000\000\000\000\000\002\000\000\000\000\000\000\000\003\000\000\000\000\000\000\000\001\000\000\000\000\000\000\000\001\000\000\000\000\000\000\000\002\000\000\000\000\000\000\000\003\000\000\000\000\000\000\000\001\000\000\000\000\000\000\000\001\000\000\000\000\000\000\000\002\000\000\000\000\000\000\000\001\000\000\000\000\000\000\000\001\000\000\000\000\000\000\000\003\000\000\000\000\000\000\000\001\000\000\000\000\000\000\000\001\000\000\000\000\000\000\000\001\000\000\000\000\000\000\000\003\000\000\000\000\000\000\000\002\000\000\000\000\000\000\000\001\000\000\000\000\000\000\000\001\000\000\000\000\000\000\000\001\000\000\000\000\000\000\000\001\000\000\000\000\000\000\000\002\000\000\000\000\000\000\000\002\000\000\000\000\000\000\000\003\000\000\000\000\000\000\000\001\000\000\000\000\000\000\000\001\000\000\000\000\000\000\000\002\000\000\000\000\000\000\000\002\000\000\000\000\000\000\000\003\000\000\000\000\000\000\000\003\000\000\000\000\000\000\000\001\000\000\000\000\000\000\000\001\000\000\000\000\000\000\000\002\000\000\000\000\000\000\000\001\000\000\000\000\000\000\000\001\000\000\000\000\000\000\000\001\000\000\000\000\000\000\000\001\000\000\000\000\000\000\000\001\000\000\000\000\000\000\000\003\000\000\000\000\000\000\000\001\000\000\000\000\000\000\000\003\000\000\000\000\000\000\000\003\000\000\000\000\000\000\000\001\000\000\000\000\000\000\000\002\000\000\000\000\000\000\000\001\000\000\000\000\000\000\000\001\000\000\000\000\000\000\000\001\000\000\000\000\000\000\000\003\000\000\000\000\000\000\000\001\000\000\000\000\000\000\000\001\000\000\000\000\000\000\000\001\000\000\000\000\000\000\000\001\000\000\000\000\000\000\000\003\000\000\000\000\000\000\000\001\000\000\000\000\000\000\000\001\000\000\000\000\000\000\000\002\000\000\000\000\000\000\000\002\000\000\000\000\000\000\000\001\000\000\000\000\000\000\000\003\000\000\000\000\000\000\000\003\000\000\000\000\000\000\000\001\000\000\000\000\000\000\000\001\000\000\000\000\000\000\000\002\000\000\000\000\000\000\000\001\000\000\000\000\000\000\000\001\000\000\000\000\000\000\000\002\000\000\000\000\000\000\000\001\000\000\000\000\000\000\000\003\000\000\000\000\000\000\000\001\000\000\000\000\000\000\000\002\000\000\000\000\000\000\000\001\000\000\000\000\000\000\000\003\000\000\000\000\000\000\000\001\000\000\000\000\000\000\000\002\000\000\000\000\000\000\000\001\000\000\000\000\000\000\000\002\000\000\000\000\000\000\000\002\000\000\000\000\000\000\000\001\000\000\000\000\000\000\000\001\000\000\000\000\000\000\000\002\000\000\000\000\000\000\000\003\000\000\000\000\000\000\000\001\000\000\000\000\000\000\000\001\000\000\000\000\000\000\000\001\000\000\000\000\000\000\000\003\000\000\000\000\000\000\000\002\000\000\000\000\000\000\000\001\000\000\000\000\000\000\000\002\000\000\000\000\000\000\000\002\000\000\000\000\000\000\000\003\000\000\000\000\000\000\000\001\000\000\000\000\000\000\000\001\000\000\000\000\000\000\000\001\000\000\000\000\000\000\000\001\000\000\000\000\000\000\000\001\000\000\000\000\000\000\000\001\000\000\000\000\000\000\000\001\000\000\000\000\000\000\000\002\000\000\000\000\000\000\000\001\000\000\000\000\000\000\000\001\000\000\000\000\000\000\000\001\000\000\000\000\000\000\000\002\000\000\000\000\000\000\000\001\000\000\000\000\000\000\000\001\000\000\000\000\000\000\000\001\000\000\000\000\000\000\000\001\000\000\000\000\000\000\000\001\000\000\000\000\000\000\000\001\000\000\000\000\000\000\000\002\000\000\000\000\000\000\000\001\000\000\000\000\000\000\000\002\000\000\000\000\000\000\000\003\000\000\000\000\000\000\000\002\000\000\000\000\000\000\000\001\000\000\000\000\000\000\000\001\000\000\000\000\000\000\000\003\000\000\000\000\000\000\000\001\000\000\000\000\000\000\000\002\000\000\000\000\000\000\000\003\000\000\000\000\000\000\000\003\000\000\000\000\000\000\000\003\000\000\000\000\000\000\000\003\000\000\000\000\000\000\000\001\000\000\000\000\000\000\000\001\000\000\000\000\000\000\000\002\000\000\000\000\000\000\000\001\000\000\000\000\000\000\000\003\000\000\000\000\000\000\000\002\000\000\000\000\000\000\000\001\000\000\000\000\000\000\000\001\000\000\000\000\000\000\000\002\000\000\000\000\000\000\000\001\000\000\000\000\000\000\000\001\000\000\000\000\000\000\000\001\000\000\000\000\000\000\000\003\000\000\000\000\000\000\000\001\000\000\000\000\000\000\000\001\000\000\000\000\000\000\000\001\000\000\000\000\000\000\000\001\000\000\000\000\000\000\000\001\000\000\000\000\000\000\000\001\000\000\000\000\000\000\000\001\000\000\000\000\000\000\000\003\000\000\000\000\000\000\000\001\000\000\000\000\000\000\000\001\000\000\000\000\000\000\000\001\000\000\000\000\000\000\000\001\000\000\000\000\000\000\000\001\000\000\000\000\000\000\000\001\000\000\000\000\000\000\000\002\000\000\000\000\000\000\000\003\000\000\000\000\000\000\000\001\000\000\000\000\000\000\000\002\000\000\000\000\000\000\000\002\000\000\000\000\000\000\000\003\000\000\000\000\000\000\000\001\000\000\000\000\000\000\000\001\000\000\000\000\000\000\000\001\000\000\000\000\000\000\000\003\000\000\000\000\000\000\000\001\000\000\000\000\000\000\000\001\000\000\000\000\000\000\000\001\000\000\000\000\000\000\000\001\000\000\000\000\000\000\000\003\000\000\000\000\000\000\000\002\000\000\000\000\000\000\000\003\000\000\000\000\000\000\000\002\000\000\000\000\000\000\000\001\000\000\000\000\000\000\000\002\000\000\000\000\000\000\000\001\000\000\000\000\000\000\000\003\000\000\000\000\000\000\000\002\000\000\000\000\000\000\000\003\000\000\000\000\000\000\000\001\000\000\000\000\000\000\000\002\000\000\000\000\000\000\000\001\000\000\000\000\000\000\000\003\000\000\000\000\000\000\000\001\000\000\000\000\000\000\000\001\000\000\000\000\000\000\000\001\000\000\000\000\000\000\000\001\000\000\000\000\000\000\000\002\000\000\000\000\000\000\000\003\000\000\000\000\000\000\000\001\000\000\000\000\000\000\000\001\000\000\000\000\000\000\000\001\000\000\000\000\000\000\000\002\000\000\000\000\000\000\000\002\000\000\000\000\000\000\000\002\000\000\000\000\000\000\000\002\000\000\000\000\000\000\000\001\000\000\000\000\000\000\000\001\000\000\000\000\000\000\000\001\000\000\000\000\000\000\000\001\000\000\000\000\000\000\000\003\000\000\000\000\000\000\000\001\000\000\000\000\000\000\000\001\000\000\000\000\000\000\000\002\000\000\000\000\000\000\000\003\000\000\000\000\000\000\000\003\000\000\000\000\000\000\000\001\000\000\000\000\000\000\000\001\000\000\000\000\000\000\000\003\000\000\000\000\000\000\000\001\000\000\000\000\000\000\000\001\000\000\000\000\000\000\000\001\000\000\000\000\000\000\000\001\000\000\000\000\000\000\000\003\000\000\000\000\000\000\000\001\000\000\000\000\000\000\000\001\000\000\000\000\000\000\000\003\000\000\000\000\000\000\000\001\000\000\000\000\000\000\000\001\000\000\000\000\000\000\000\001\000\000\000\000\000\000\000\001\000\000\000\000\000\000\000\003\000\000\000\000\000\000\000\002\000\000\000\000\000\000\000\003\000\000\000\000\000\000\000\001\000\000\000\000\000\000\000\002\000\000\000\000\000\000\000"
      }
    }
  }
}
node {
  name: "normalize_element/component_6"
  op: "Const"
  device: "/device:CPU:0"
  attr {
    key: "_output_shapes"
    value {
      list {
        shape {
          dim {
            size: 313
          }
        }
      }
    }
  }
  attr {
    key: "dtype"
    value {
      type: DT_DOUBLE
    }
  }
  attr {
    key: "value"
    value {
      tensor {
        dtype: DT_DOUBLE
        tensor_shape {
          dim {
            size: 313
          }
        }
        tensor_content: "\255\026=Yw\315\357\277\350\030G\336\274*\356\277\255\026=Yw\315\357\277\245kAK\020\324\346?\226\224F\3476Z\356?\262w\274\031\315m\363?\270p\340\343{Y\354\277c\236\326\360\273\025\360?\325LL\337\323\007\326?\n2\251\243#\317\362\277j2\200\344Y\211\362\277S.C\033\005\211\365\277\r\242\233\237\215G\370\277\322\004\324t;S\244\277\021K\311\265\360J\335\277\211(n\301\2258\357\277\237w:\000\216\330\361\277\205_Dc\024\245\370?R7\355HZ\223\360?RG\353li[\361?\207\310y\351:\210\352\277\221ti_&I\340?\302\312\203n\200\345\350\277\263\220\373\353\247h\341\277\375\372\003\'k\375\337?\325\363\253\3752\025\347?Pr\266\026\014z\241?\376\207\017e\323Z\362\277\215\000S4\035\216\361\277\026\314D\276d{\362\277{\211kh\254C\361\2774R@\2376\262\351\277N\006h\3641K\357\277(\317_\036Hc\376?@\221\006\362\361\376\224?\031\254\2225\302C\333?\315$\'\371\204q\345\277r\346\274\240\214\265\310\277,\247D\221\317\270\340?\324\014TO\227\347\322?_=W0fu\354\277\026\023G\205\337\000\301\277\243y\010\370\221\316\345\277\223\335\236\345L,\362\277G\204\251\334\264\024\365\277Qc\303\205\350\250\351\277wC\313pHC\353?\256\372d@\370\177\367?@\314\222\260^\376\317?\350\030G\336\274*\356\277M\306od\365*\354\277O\343\322eoh\343\277r\206{\00775\354?\215\234\204\354\236\363\375?\300qL\014i\312\367?-u\364\355\006\024\351\277A\307Ys\243\006\366\2770\365\344\r\200T\357\277r\3646\214\023\340\357\277e\336\316\200\3705\363?U\300\036\027\237\006\344\277\206\253\336k\243;\247\277l\351t\247>\207\306\277\206\253\336k\243;\247\277l\201\014k\251\250Q\277\277*\227\006\351\024\341\277\261s\230\352-+\352\277\321\266\231u\225\027\306\277\354C\237\215\245\263\270\277\325\334\360c\340\267\362\277\0370>\005Q\357\354?ba\016(\232p\331\277z\374_*D\346\336?\352\034k\r\\m\367?\376\207\017e\323Z\362\277\267g\2375\260&\377?a!\026\230]P\326\277\241\356\351q;\346\352?\'\246\"(^\240\337?$\377xJ\203:\364?Nj6<\260\345\322\277\261E\"\267\210p\301\277z\316\351\366\236+\346\277\315$\'\371\204q\345\2776-\276XbZ\366\277j2\200\344Y\211\362\277PQA)QC\337?Q\'\013\343\331\322\265?y\343\004\232\332\343\312\277\375\372\003\'k\375\337?\3112W%\220C\362\277\313\353\353\336\213\346\365?.\0079i*i\345?\000mz[]\023\357\277\271mG\235\327\006\342\277P\265\017q\317\335\342?RG\353li[\361?j\267\366\002\211\221\352\277\0045a\252\325\240\360\277:\032q\255*\230\325?\303\361<,\342\n\376?@\2637 \365\373\333\277O\003\317\255\215\370\344\277\244g\001^\342\211\267\277\272\302Z\320O\337\311\277A\020\374051\364?\364\262\342\370\375\326\355\277\243\200\305m\325c\371?\365V\251\320\270\221\324\277\276M,\225\253\367\354\277\264\327\260\361\'\036\370?/\231\024e\304\346\363?\352<gUz\375\370?\255\341%n\035\205\331?\372o2b\017\345\354\2779\212\031\352\030\270\360\277\366\317E\372w\024\345\277\223\364Y\177\237\211\346?\336\rW\370\372\200\340?\001*\351\204|\240\341\277\311BUI\237\013\363\277\034\211\224\'v\211\361\277}n\326^6\374\355\277p[\236\0326\315\335\277\337\302\307\202W\341\372??Wgw9\216\360\277\023\310\245\314\335\027\275?\341\033\377\344n\374\353\277\337MO\2107\241\343?\355G\337z\323\375\347?}B\000\"\250\346\364?\302\312\203n\200\345\350\277m!h\037\0074\227\277]\375^\240)U\351\277\274\264\223#\316\344\332\277V\027\322@.\204\373?\334^\257{]\356\354\277\273\230$\212\330n\320?z\374_*D\346\336?\2638\253\205\222H\002@\277m(\335\311\207\356\277\224m\366\250^\014\327?\205\017\345/?\345\326\277p&\207/\334\204\347?\2403h\000.\316\377?\223\335\236\345L,\362\2777A\340\253\020e\340?Cp\360\010\220\341\370?\302\312\203n\200\345\350\2772\271\247-Y\237\327\277\317HGpBD\360?wX\346\023\204\373\337\277\211\203\373ZH\240\365\277\357r\274g\324e\306?h\036^\221\253~\330\277G\204\251\334\264\024\365\277f.\3054D\036\367?C>\t\345P\024\357?X`\013\1776\327\353\277%?\215\230Nb\275?@\207a\343f\346\362\277\211}\216`\220\335\001@\027a\271\000\243K\353\277\345xZv%Z\346\277^\210\346\245\t\025\362\277\263\227\270a\353\375\364?v\334\031#\252\375\362\277\303\261\333\034\034\023\335\277,\325\272\304ts\311?MQ\367i\325\352\364\277\364\262\342\370\375\326\355\277\006\321)\343\315.\337\277\372o2b\017\345\354\277V\340\032_\275\226\345\277\307~\222)\306\300\372?\243\220\303\221\344+\372?\014\231Z\361\301\024\353?$\277\027;\275B\323\277\324!o\362\322\237\347\277\026\010\031\037\002Y\334\277\322\004\324t;S\244\277\362\335u&\203\346\361\277\222\"\035t?\024\347\277\357\000t4\317\240\333?c\206\t\034\"\200w?;\341\314\023\2505\350?\327\301[Zjp\357\277\213\267\031\366\024;\341?\331P\007\217\351r\341?\366\346\000\224\312q\371?AL\320\221\322\016\356\277\336\222\315\026*\211\370?$\277\027;\275B\323\277\374\263N!\353G\371?K\370\277\007\276\317\343?\004\361\216\252u\226\376?s\377\0271\366\267\334?D\220\354P\256q\372?MC\231<\335\307\303?\327\225\205\035\334Z\366?\236\247\235\353D\010\322?\252a5N\244D\323?i\202\337\027/I\324?\223\335\236\345L,\362\277ba\016(\232p\331\277\326\201+N\020A\240\277kl\013z\336\346\001@\'\007\220\245U\367\244?;\332\017\236d\240\364\277\327\225\205\035\334Z\366?9\317J\267\020\320\315??\314\337qY\316\347\277\242\237\376P\333\364\257\277\242\237\376P\333\364\257\277\3025\017,B\025\360\277\205\017\345/?\345\326\277\266\2420\207D\376\343?H\346\212l!:\341\277\277AR\240;r\365?\r\213\340\005;\352\323\277\004\265\272I\330\270\324?\265b8\367\007\336\340?\220\331\34357\301\366?\311BUI\237\013\363\277\327~\312\203\211\375\341\277S.C\033\005\211\365\277/0v_\024,\364\2779\212\031\352\030\270\360\277(\243\211\341\271M\325?\337\302\307\202W\341\372?V\007\324\034\037\274\372?\324\001&\351\271?\316?\245KE\003\362C\345?\'?\010[6\203\331\277\270\002%_\237\256\350?\000mz[]\023\357\277O\003\317\255\215\370\344\277\350\325\265\007\334\267\340\277P*\210k\357\035\372?\017\013\321%\264*\332\277\2316 \007\340\237\375?#\357z&tr\363?\322\301z\032x\357\342\277\223\335\236\345L,\362\277P\352&\\)&\331\277&\215\307\227\364\235\313\277\322\2015\311@\377\307?^\035[\350G\345\352\277m\351\'\346C\267\356?\301\221HT\207Z\371?YD3f\267\211\363?\231\037em\215B\351\277N\321P\t\330\002\331?\312y\014+\020\371\350?Gm\356Bb\267\320\277\345\237\0234\207\177\373?\264\320\363{\344\210\344\277\027\334B\342sC\363\277\000\330\005\031\037C\366\277\372U\030\023j\255{\277l\027\353\332\343A\357\277^\210\346\245\t\025\362\277\276\252K\306\255\000\000@\364YB\027]\344\336\277\374S\361\311\006\300\326\277 \233`C\211G\346\277\252}\rg#\222\373?\336{\022}\327+\344\277\\\362}\373F}\314\277\000mz[]\023\357\277\350\030G\336\274*\356\277\013\213I\205\304\301\361?\375lLZp\302\312?\241\300s>\226+\322\277\000mz[]\023\357\277\365mdj\013\357\370\277$\355\215nb\375\353?\020\337\372\350%\025\361\277\3342\331>\317\330\363?q/\310\335\247\267\364\277L!\375\375\247\222\362\277|.\336\316\371\333\352\277c58\353\013[\360\277\275\341]\310\340\301\360?$\017wn\222\002\365?\030\376\320\301\341t\001@\032\223\352\343]q\357?d\372\246\231w\203\353\277\214\014-)\215\023\331\277u\303\332P\317\002\345?\241\\\245\366\027\221\356\277\n2\251\243#\317\362\277(3.f\306\375\361\2777\335\021d\222\312\334?\277?\262\251$\315\305\277\020\337\372\350%\025\361\277\022\210\221~\022\360\363?\327u\211\325\275\312\364?\241\356\351q;\346\352?y\203\303\000\205c\356?\332\211B\251\342\375\360\277\325h$\370RU\376?\3236\212\225\016X\314\277\3463\334\3472r\361\277\352\247\362\022<-\340?\313\224\335\224:\225\003@B\271\355\346\343\337\001@\332\314\267\3014i\270\2774\335\307\244\026r\362\277\317\244\027\031\376\261\353\277\211\203\373ZH\240\365\277\312k\222?\211\316\321\277\3011\353\374\242\322\326\277"
      }
    }
  }
}
node {
  name: "normalize_element/component_7"
  op: "Const"
  device: "/device:CPU:0"
  attr {
    key: "_output_shapes"
    value {
      list {
        shape {
          dim {
            size: 313
          }
        }
      }
    }
  }
  attr {
    key: "dtype"
    value {
      type: DT_DOUBLE
    }
  }
  attr {
    key: "value"
    value {
      tensor {
        dtype: DT_DOUBLE
        tensor_shape {
          dim {
            size: 313
          }
        }
        tensor_content: "ffffffD@\000\000\000\000\000\000>@\315\314\314\314\314LG@\000\000\000\000\000\0002@\000\000\000\000\000\2000@\000\000\000\000\000\000/@\000\000\000\000\000\000B@\000\000\000\000\000\000*@\000\000\000\000\000\0002@\000\000\000\000\000\000:@\000\000\000\000\000\000C@\315\314\314\314\314\014B@\000\000\000\000\000\000?@\000\000\000\000\000\000;@\000\000\000\000\000\0004@\000\000\000\000\000\0009@\000\000\000\000\000\000@@\000\000\000\000\000\000.@\000\000\000\000\000\0000@\000\000\000\000\000\2002@\000\000\000\000\000\000:@\000\000\000\000\000\0000@\000\000\000\000\000\2009@\000\000\000\000\000\0007@\000\000\000\000\000\2004@\232\231\231\231\231\2312@\000\000\000\000\000\000C@\000\000\000\000\000\200B@\232\231\231\231\231\231B@\315\314\314\314\314\014C@\000\000\000\000\000\000=@\000\000\000\000\000\0008@\000\000\000\000\000\0002@\000\000\000\000\000\000,@\315\314\314\314\314L8@\232\231\231\231\231\2314@\000\000\000\000\000\0006@\000\000\000\000\000\0006@33333\2631@\000\000\000\000\000\2005@\000\000\000\000\000\000;@\000\000\000\000\000\0003@\000\000\000\000\000\000>@\000\000\000\000\000\000>@\000\000\000\000\000\200=@\000\000\000\000\000\0004@ffffff3@\000\000\000\000\000\0000@\232\231\231\231\231\0312@\000\000\000\000\000\000<@\232\231\231\231\231\331@@\000\000\000\000\000\000:@\000\000\000\000\000\000.@\000\000\000\000\000\000&@\000\000\000\000\000\000*@\000\000\000\000\000\000@@\000\000\000\000\000\000?@\000\000\000\000\000\000<@\000\000\000\000\000\0008@\000\000\000\000\000\000,@\000\000\000\000\000\200B@\000\000\000\000\000\0002@\315\314\314\314\314L4@\000\000\000\000\000\0006@\000\000\000\000\000\0002@\232\231\231\231\231\0315@\000\000\000\000\000\000:@\000\000\000\000\000\0006@ffffff9@\000\000\000\000\000\000:@\000\000\000\000\000\0000@\232\231\231\231\231\231:@3333330@\000\000\000\000\000\000*@\315\314\314\314\314\014A@\000\000\000\000\000\000*@\000\000\000\000\000\000<@\232\231\231\231\231\231:@fffff\3467@\000\000\000\000\000\000*@\000\000\000\000\000\2007@\000\000\000\000\000\0008@\000\000\000\000\000\0009@\000\000\000\000\000\000A@\315\314\314\314\314\214C@\000\000\000\000\000\000@@ffffff6@3333334@fffff\346;@3333333@\000\000\000\000\000\000B@\000\000\000\000\000\0000@\000\000\000\000\000\0002@fffff\246B@\000\000\000\000\000\0008@\000\000\000\000\000\0002@\000\000\000\000\000\000*@\000\000\000\000\000\0007@33333\263C@\000\000\000\000\000\0003@\000\000\000\000\000\000,@\000\000\000\000\000\2005@\000\000\000\000\000\0006@\000\000\000\000\000\0007@\000\000\000\000\000\0004@\000\000\000\000\000\000,@\000\000\000\000\000\2008@\000\000\000\000\000\000&@\000\000\000\000\000\0008@fffff&A@\000\000\000\000\000\000,@\000\000\000\000\000\2001@fffff\3460@\000\000\000\000\000\000.@\000\000\000\000\000\200@@\000\000\000\000\000\000>@fffff\3467@3333333@\000\000\000\000\000\0000@\000\000\000\000\000\200A@\000\000\000\000\000\000=@\315\314\314\314\314\314?@\000\000\000\000\000\000B@\000\000\000\000\000\000?@\000\000\000\000\000\000*@\000\000\000\000\000\000>@\000\000\000\000\000\2006@\232\231\231\231\231YA@\000\000\000\000\000\2002@\000\000\000\000\000\2002@\000\000\000\000\000\000.@333333;@3333334@\000\000\000\000\000\000<@33333s@@\000\000\000\000\000\000(@\000\000\000\000\000\000:@\000\000\000\000\000\0003@\232\231\231\231\231\0312@\000\000\000\000\000\000&@fffff\346@@\000\000\000\000\000\0003@ffffff<@\000\000\000\000\000\0000@\000\000\000\000\000\000*@\315\314\314\314\314\014A@\000\000\000\000\000\0002@\000\000\000\000\000\000,@\000\000\000\000\000\000:@\000\000\000\000\000\0008@\000\000\000\000\000\2001@\000\000\000\000\000\0008@\000\000\000\000\000\200@@\000\000\000\000\000\0002@\000\000\000\000\000\0005@\000\000\000\000\000\000B@\000\000\000\000\000\000,@\000\000\000\000\000\0001@\000\000\000\000\000\000=@\000\000\000\000\000\000,@\000\000\000\000\000\300@@\000\000\000\000\000\000(@\000\000\000\000\000\000:@\000\000\000\000\000\000B@\000\000\000\000\000\000@@\000\000\000\000\000\000/@\000\000\000\000\000\000=@\000\000\000\000\000\000:@33333\263>@\000\000\000\000\000\000;@\000\000\000\000\000\000<@\000\000\000\000\000\300@@\000\000\000\000\000\200>@\000\000\000\000\000\000:@\000\000\000\000\000\000,@\000\000\000\000\000\000,@\000\000\000\000\000\000.@\000\000\000\000\000\2005@33333\263E@\315\314\314\314\314\314<@333333B@\000\000\000\000\000\000?@333333@@fffff\3463@\315\314\314\314\314\3143@\000\000\000\000\000\0004@\315\314\314\314\314\014@@\000\000\000\000\000\0002@\232\231\231\231\231\2311@\000\000\000\000\000\000,@\000\000\000\000\000\0008@\000\000\000\000\000\0000@\232\231\231\231\231\0319@\000\000\000\000\000\000$@ffffff9@\000\000\000\000\000\0000@\232\231\231\231\231\2314@\000\000\000\000\000\000.@\000\000\000\000\000\0002@\000\000\000\000\000\000-@\000\000\000\000\000\0006@\000\000\000\000\000\000>@\000\000\000\000\000\0003@\315\314\314\314\314\214E@\232\231\231\231\231\231?@\000\000\000\000\000\0007@\000\000\000\000\000\000(@\000\000\000\000\000\0002@\315\314\314\314\314LF@\000\000\000\000\000\2001@333333;@\000\000\000\000\000\0003@3333338@\000\000\000\000\000\0003@\000\000\000\000\000\000;@ffffff;@3333333@\000\000\000\000\000\0006@\000\000\000\000\000\000/@\315\314\314\314\314\314=@\000\000\000\000\000\0003@\000\000\000\000\000\0001@\000\000\000\000\000\000,@\000\000\000\000\000\000=@333333;@\315\314\314\314\314\014B@\000\000\000\000\000\200C@fffff&@@\000\000\000\000\000\0000@\000\000\000\000\000\000,@\000\000\000\000\000\000(@\000\000\000\000\000\2001@3333334@\000\000\000\000\000\0003@\000\000\000\000\000\000&@\000\000\000\000\000\000;@\000\000\000\000\000\0004@\000\000\000\000\000\000=@\000\000\000\000\000\000*@\000\000\000\000\000\000<@\000\000\000\000\000\000$@\000\000\000\000\000\000*@\000\000\000\000\000\000<@ffffff@@\000\000\000\000\000\0007@\232\231\231\231\231\2315@\000\000\000\000\000\0004@\000\000\000\000\000\000A@3333332@\000\000\000\000\000\2000@\000\000\000\000\000\0001@333333@@\000\000\000\000\000\0001@\000\000\000\000\000\000,@\000\000\000\000\000\2009@\000\000\000\000\000\0000@33333\2637@fffff\346?@\315\314\314\314\314\214A@\000\000\000\000\000\0005@\000\000\000\000\000\000C@\000\000\000\000\000\200?@\000\000\000\000\000\000*@\000\000\000\000\000\200;@\000\000\000\000\000\0009@\000\000\000\000\000\0008@\000\000\000\000\000\000*@\000\000\000\000\000\0008@\000\000\000\000\000\0002@\000\000\000\000\000\000;@\000\000\000\000\000\000>@\000\000\000\000\000\000/@\000\000\000\000\000\000*@\000\000\000\000\000\000;@\000\000\000\000\000\000F@\000\000\000\000\000\200A@\000\000\000\000\000\000*@333333A@\000\000\000\000\000\000,@\315\314\314\314\314\314=@\000\000\000\000\000\000:@\000\000\000\000\000\000:@fffff&F@\000\000\000\000\000\0001@\000\000\000\000\000\0000@\000\000\000\000\000\000(@\000\000\000\000\000\000.@\000\000\000\000\000\0009@\000\000\000\000\000\000;@\000\000\000\000\000\000.@\000\000\000\000\000\300D@\000\000\000\000\000\000?@\000\000\000\000\000\000C@\232\231\231\231\231\0313@\000\000\000\000\000\0006@\000\000\000\000\000\200?@\000\000\000\000\000\000.@\000\000\000\000\000\000,@\232\231\231\231\231\2311@\000\000\000\000\000\000*@\232\231\231\231\231\331B@\000\000\000\000\000\000*@\000\000\000\000\000\000;@\000\000\000\000\000\200B@\000\000\000\000\000\2004@\000\000\000\000\000\000*@\000\000\000\000\000\000(@\000\000\000\000\000\0003@\000\000\000\000\000\000?@\000\000\000\000\000\0009@\000\000\000\000\000\200@@\000\000\000\000\000\2008@\000\000\000\000\000\0009@"
      }
    }
  }
}
node {
  name: "TensorSliceDataset"
  op: "TensorSliceDataset"
  input: "normalize_element/component_0"
  input: "normalize_element/component_1"
  input: "normalize_element/component_2"
  input: "normalize_element/component_3"
  input: "normalize_element/component_4"
  input: "normalize_element/component_5"
  input: "normalize_element/component_6"
  input: "normalize_element/component_7"
  device: "/device:CPU:0"
  attr {
    key: "Toutput_types"
    value {
      list {
        type: DT_DOUBLE
        type: DT_DOUBLE
        type: DT_DOUBLE
        type: DT_DOUBLE
        type: DT_INT64
        type: DT_INT64
        type: DT_DOUBLE
        type: DT_DOUBLE
      }
    }
  }
  attr {
    key: "_output_shapes"
    value {
      list {
        shape {
        }
      }
    }
  }
  attr {
    key: "output_shapes"
    value {
      list {
        shape {
        }
        shape {
        }
        shape {
        }
        shape {
        }
        shape {
        }
        shape {
        }
        shape {
        }
        shape {
        }
      }
    }
  }
}
node {
  name: "buffer_size"
  op: "Const"
  device: "/device:CPU:0"
  attr {
    key: "_output_shapes"
    value {
      list {
        shape {
        }
      }
    }
  }
  attr {
    key: "dtype"
    value {
      type: DT_INT64
    }
  }
  attr {
    key: "value"
    value {
      tensor {
        dtype: DT_INT64
        tensor_shape {
        }
        int64_val: 1000
      }
    }
  }
}
node {
  name: "seed"
  op: "Const"
  device: "/device:CPU:0"
  attr {
    key: "_output_shapes"
    value {
      list {
        shape {
        }
      }
    }
  }
  attr {
    key: "dtype"
    value {
      type: DT_INT64
    }
  }
  attr {
    key: "value"
    value {
      tensor {
        dtype: DT_INT64
        tensor_shape {
        }
        int64_val: 0
      }
    }
  }
}
node {
  name: "seed2"
  op: "Const"
  device: "/device:CPU:0"
  attr {
    key: "_output_shapes"
    value {
      list {
        shape {
        }
      }
    }
  }
  attr {
    key: "dtype"
    value {
      type: DT_INT64
    }
  }
  attr {
    key: "value"
    value {
      tensor {
        dtype: DT_INT64
        tensor_shape {
        }
        int64_val: 0
      }
    }
  }
}
node {
  name: "ShuffleDataset"
  op: "ShuffleDataset"
  input: "TensorSliceDataset"
  input: "buffer_size"
  input: "seed"
  input: "seed2"
  device: "/device:CPU:0"
  attr {
    key: "_output_shapes"
    value {
      list {
        shape {
        }
      }
    }
  }
  attr {
    key: "output_shapes"
    value {
      list {
        shape {
        }
        shape {
        }
        shape {
        }
        shape {
        }
        shape {
        }
        shape {
        }
        shape {
        }
        shape {
        }
      }
    }
  }
  attr {
    key: "output_types"
    value {
      list {
        type: DT_DOUBLE
        type: DT_DOUBLE
        type: DT_DOUBLE
        type: DT_DOUBLE
        type: DT_INT64
        type: DT_INT64
        type: DT_DOUBLE
        type: DT_DOUBLE
      }
    }
  }
  attr {
    key: "reshuffle_each_iteration"
    value {
      b: true
    }
  }
}
node {
  name: "count"
  op: "Const"
  device: "/device:CPU:0"
  attr {
    key: "_output_shapes"
    value {
      list {
        shape {
        }
      }
    }
  }
  attr {
    key: "dtype"
    value {
      type: DT_INT64
    }
  }
  attr {
    key: "value"
    value {
      tensor {
        dtype: DT_INT64
        tensor_shape {
        }
        int64_val: -1
      }
    }
  }
}
node {
  name: "RepeatDataset"
  op: "RepeatDataset"
  input: "ShuffleDataset"
  input: "count"
  device: "/device:CPU:0"
  attr {
    key: "_output_shapes"
    value {
      list {
        shape {
        }
      }
    }
  }
  attr {
    key: "output_shapes"
    value {
      list {
        shape {
        }
        shape {
        }
        shape {
        }
        shape {
        }
        shape {
        }
        shape {
        }
        shape {
        }
        shape {
        }
      }
    }
  }
  attr {
    key: "output_types"
    value {
      list {
        type: DT_DOUBLE
        type: DT_DOUBLE
        type: DT_DOUBLE
        type: DT_DOUBLE
        type: DT_INT64
        type: DT_INT64
        type: DT_DOUBLE
        type: DT_DOUBLE
      }
    }
  }
}
node {
  name: "batch_size"
  op: "Const"
  device: "/device:CPU:0"
  attr {
    key: "_output_shapes"
    value {
      list {
        shape {
        }
      }
    }
  }
  attr {
    key: "dtype"
    value {
      type: DT_INT64
    }
  }
  attr {
    key: "value"
    value {
      tensor {
        dtype: DT_INT64
        tensor_shape {
        }
        int64_val: 8
      }
    }
  }
}
node {
  name: "drop_remainder"
  op: "Const"
  device: "/device:CPU:0"
  attr {
    key: "_output_shapes"
    value {
      list {
        shape {
        }
      }
    }
  }
  attr {
    key: "dtype"
    value {
      type: DT_BOOL
    }
  }
  attr {
    key: "value"
    value {
      tensor {
        dtype: DT_BOOL
        tensor_shape {
        }
        bool_val: false
      }
    }
  }
}
node {
  name: "BatchDatasetV2"
  op: "BatchDatasetV2"
  input: "RepeatDataset"
  input: "batch_size"
  input: "drop_remainder"
  device: "/device:CPU:0"
  attr {
    key: "_output_shapes"
    value {
      list {
        shape {
        }
      }
    }
  }
  attr {
    key: "output_shapes"
    value {
      list {
        shape {
          dim {
            size: -1
          }
        }
        shape {
          dim {
            size: -1
          }
        }
        shape {
          dim {
            size: -1
          }
        }
        shape {
          dim {
            size: -1
          }
        }
        shape {
          dim {
            size: -1
          }
        }
        shape {
          dim {
            size: -1
          }
        }
        shape {
          dim {
            size: -1
          }
        }
        shape {
          dim {
            size: -1
          }
        }
      }
    }
  }
  attr {
    key: "output_types"
    value {
      list {
        type: DT_DOUBLE
        type: DT_DOUBLE
        type: DT_DOUBLE
        type: DT_DOUBLE
        type: DT_INT64
        type: DT_INT64
        type: DT_DOUBLE
        type: DT_DOUBLE
      }
    }
  }
  attr {
    key: "parallel_copy"
    value {
      b: false
    }
  }
}
node {
  name: "optimizations"
  op: "Const"
  attr {
    key: "_output_shapes"
    value {
      list {
        shape {
          dim {
            size: 3
          }
        }
      }
    }
  }
  attr {
    key: "dtype"
    value {
      type: DT_STRING
    }
  }
  attr {
    key: "value"
    value {
      tensor {
        dtype: DT_STRING
        tensor_shape {
          dim {
            size: 3
          }
        }
        string_val: "map_and_batch_fusion"
        string_val: "noop_elimination"
        string_val: "shuffle_and_repeat_fusion"
      }
    }
  }
}
node {
  name: "OptimizeDataset"
  op: "OptimizeDataset"
  input: "BatchDatasetV2"
  input: "optimizations"
  attr {
    key: "_output_shapes"
    value {
      list {
        shape {
        }
      }
    }
  }
  attr {
    key: "optimization_configs"
    value {
      list {
        s: "map_vectorization:use_choose_fastest:false"
      }
    }
  }
  attr {
    key: "output_shapes"
    value {
      list {
        shape {
          dim {
            size: -1
          }
        }
        shape {
          dim {
            size: -1
          }
        }
        shape {
          dim {
            size: -1
          }
        }
        shape {
          dim {
            size: -1
          }
        }
        shape {
          dim {
            size: -1
          }
        }
        shape {
          dim {
            size: -1
          }
        }
        shape {
          dim {
            size: -1
          }
        }
        shape {
          dim {
            size: -1
          }
        }
      }
    }
  }
  attr {
    key: "output_types"
    value {
      list {
        type: DT_DOUBLE
        type: DT_DOUBLE
        type: DT_DOUBLE
        type: DT_DOUBLE
        type: DT_INT64
        type: DT_INT64
        type: DT_DOUBLE
        type: DT_DOUBLE
      }
    }
  }
}
node {
  name: "ModelDataset"
  op: "ModelDataset"
  input: "OptimizeDataset"
  attr {
    key: "_output_shapes"
    value {
      list {
        shape {
        }
      }
    }
  }
  attr {
    key: "algorithm"
    value {
      i: 0
    }
  }
  attr {
    key: "cpu_budget"
    value {
      i: 0
    }
  }
  attr {
    key: "output_shapes"
    value {
      list {
        shape {
          dim {
            size: -1
          }
        }
        shape {
          dim {
            size: -1
          }
        }
        shape {
          dim {
            size: -1
          }
        }
        shape {
          dim {
            size: -1
          }
        }
        shape {
          dim {
            size: -1
          }
        }
        shape {
          dim {
            size: -1
          }
        }
        shape {
          dim {
            size: -1
          }
        }
        shape {
          dim {
            size: -1
          }
        }
      }
    }
  }
  attr {
    key: "output_types"
    value {
      list {
        type: DT_DOUBLE
        type: DT_DOUBLE
        type: DT_DOUBLE
        type: DT_DOUBLE
        type: DT_INT64
        type: DT_INT64
        type: DT_DOUBLE
        type: DT_DOUBLE
      }
    }
  }
}
node {
  name: "IteratorV2"
  op: "IteratorV2"
  attr {
    key: "_output_shapes"
    value {
      list {
        shape {
        }
      }
    }
  }
  attr {
    key: "container"
    value {
      s: ""
    }
  }
  attr {
    key: "output_shapes"
    value {
      list {
        shape {
          dim {
            size: -1
          }
        }
        shape {
          dim {
            size: -1
          }
        }
        shape {
          dim {
            size: -1
          }
        }
        shape {
          dim {
            size: -1
          }
        }
        shape {
          dim {
            size: -1
          }
        }
        shape {
          dim {
            size: -1
          }
        }
        shape {
          dim {
            size: -1
          }
        }
        shape {
          dim {
            size: -1
          }
        }
      }
    }
  }
  attr {
    key: "output_types"
    value {
      list {
        type: DT_DOUBLE
        type: DT_DOUBLE
        type: DT_DOUBLE
        type: DT_DOUBLE
        type: DT_INT64
        type: DT_INT64
        type: DT_DOUBLE
        type: DT_DOUBLE
      }
    }
  }
  attr {
    key: "shared_name"
    value {
      s: ""
    }
  }
}
node {
  name: "MakeIterator"
  op: "MakeIterator"
  input: "ModelDataset"
  input: "IteratorV2"
  attr {
    key: "_class"
    value {
      list {
        s: "loc:@IteratorV2"
      }
    }
  }
}
node {
  name: "IteratorToStringHandle"
  op: "IteratorToStringHandle"
  input: "IteratorV2"
  attr {
    key: "_output_shapes"
    value {
      list {
        shape {
        }
      }
    }
  }
}
node {
  name: "IteratorGetNext"
  op: "IteratorGetNext"
  input: "IteratorV2"
  attr {
    key: "_output_shapes"
    value {
      list {
        shape {
          dim {
            size: -1
          }
        }
        shape {
          dim {
            size: -1
          }
        }
        shape {
          dim {
            size: -1
          }
        }
        shape {
          dim {
            size: -1
          }
        }
        shape {
          dim {
            size: -1
          }
        }
        shape {
          dim {
            size: -1
          }
        }
        shape {
          dim {
            size: -1
          }
        }
        shape {
          dim {
            size: -1
          }
        }
      }
    }
  }
  attr {
    key: "output_shapes"
    value {
      list {
        shape {
          dim {
            size: -1
          }
        }
        shape {
          dim {
            size: -1
          }
        }
        shape {
          dim {
            size: -1
          }
        }
        shape {
          dim {
            size: -1
          }
        }
        shape {
          dim {
            size: -1
          }
        }
        shape {
          dim {
            size: -1
          }
        }
        shape {
          dim {
            size: -1
          }
        }
        shape {
          dim {
            size: -1
          }
        }
      }
    }
  }
  attr {
    key: "output_types"
    value {
      list {
        type: DT_DOUBLE
        type: DT_DOUBLE
        type: DT_DOUBLE
        type: DT_DOUBLE
        type: DT_INT64
        type: DT_INT64
        type: DT_DOUBLE
        type: DT_DOUBLE
      }
    }
  }
}
node {
  name: "dnn/Cast"
  op: "Cast"
  input: "IteratorGetNext"
  attr {
    key: "DstT"
    value {
      type: DT_FLOAT
    }
  }
  attr {
    key: "SrcT"
    value {
      type: DT_DOUBLE
    }
  }
  attr {
    key: "Truncate"
    value {
      b: false
    }
  }
  attr {
    key: "_output_shapes"
    value {
      list {
        shape {
          dim {
            size: -1
          }
        }
      }
    }
  }
}
node {
  name: "dnn/Cast_1"
  op: "Cast"
  input: "IteratorGetNext:1"
  attr {
    key: "DstT"
    value {
      type: DT_FLOAT
    }
  }
  attr {
    key: "SrcT"
    value {
      type: DT_DOUBLE
    }
  }
  attr {
    key: "Truncate"
    value {
      b: false
    }
  }
  attr {
    key: "_output_shapes"
    value {
      list {
        shape {
          dim {
            size: -1
          }
        }
      }
    }
  }
}
node {
  name: "dnn/Cast_2"
  op: "Cast"
  input: "IteratorGetNext:2"
  attr {
    key: "DstT"
    value {
      type: DT_FLOAT
    }
  }
  attr {
    key: "SrcT"
    value {
      type: DT_DOUBLE
    }
  }
  attr {
    key: "Truncate"
    value {
      b: false
    }
  }
  attr {
    key: "_output_shapes"
    value {
      list {
        shape {
          dim {
            size: -1
          }
        }
      }
    }
  }
}
node {
  name: "dnn/Cast_3"
  op: "Cast"
  input: "IteratorGetNext:3"
  attr {
    key: "DstT"
    value {
      type: DT_FLOAT
    }
  }
  attr {
    key: "SrcT"
    value {
      type: DT_DOUBLE
    }
  }
  attr {
    key: "Truncate"
    value {
      b: false
    }
  }
  attr {
    key: "_output_shapes"
    value {
      list {
        shape {
          dim {
            size: -1
          }
        }
      }
    }
  }
}
node {
  name: "dnn/Cast_4"
  op: "Cast"
  input: "IteratorGetNext:6"
  attr {
    key: "DstT"
    value {
      type: DT_FLOAT
    }
  }
  attr {
    key: "SrcT"
    value {
      type: DT_DOUBLE
    }
  }
  attr {
    key: "Truncate"
    value {
      b: false
    }
  }
  attr {
    key: "_output_shapes"
    value {
      list {
        shape {
          dim {
            size: -1
          }
        }
      }
    }
  }
}
node {
  name: "dnn/input_from_feature_columns/input_layer/Acceleration_1/ExpandDims/dim"
  op: "Const"
  attr {
    key: "_output_shapes"
    value {
      list {
        shape {
        }
      }
    }
  }
  attr {
    key: "dtype"
    value {
      type: DT_INT32
    }
  }
  attr {
    key: "value"
    value {
      tensor {
        dtype: DT_INT32
        tensor_shape {
        }
        int_val: -1
      }
    }
  }
}
node {
  name: "dnn/input_from_feature_columns/input_layer/Acceleration_1/ExpandDims"
  op: "ExpandDims"
  input: "dnn/Cast"
  input: "dnn/input_from_feature_columns/input_layer/Acceleration_1/ExpandDims/dim"
  attr {
    key: "T"
    value {
      type: DT_FLOAT
    }
  }
  attr {
    key: "Tdim"
    value {
      type: DT_INT32
    }
  }
  attr {
    key: "_output_shapes"
    value {
      list {
        shape {
          dim {
            size: -1
          }
          dim {
            size: 1
          }
        }
      }
    }
  }
}
node {
  name: "dnn/input_from_feature_columns/input_layer/Acceleration_1/Shape"
  op: "Shape"
  input: "dnn/input_from_feature_columns/input_layer/Acceleration_1/ExpandDims"
  attr {
    key: "T"
    value {
      type: DT_FLOAT
    }
  }
  attr {
    key: "_output_shapes"
    value {
      list {
        shape {
          dim {
            size: 2
          }
        }
      }
    }
  }
  attr {
    key: "out_type"
    value {
      type: DT_INT32
    }
  }
}
node {
  name: "dnn/input_from_feature_columns/input_layer/Acceleration_1/strided_slice/stack"
  op: "Const"
  attr {
    key: "_output_shapes"
    value {
      list {
        shape {
          dim {
            size: 1
          }
        }
      }
    }
  }
  attr {
    key: "dtype"
    value {
      type: DT_INT32
    }
  }
  attr {
    key: "value"
    value {
      tensor {
        dtype: DT_INT32
        tensor_shape {
          dim {
            size: 1
          }
        }
        int_val: 0
      }
    }
  }
}
node {
  name: "dnn/input_from_feature_columns/input_layer/Acceleration_1/strided_slice/stack_1"
  op: "Const"
  attr {
    key: "_output_shapes"
    value {
      list {
        shape {
          dim {
            size: 1
          }
        }
      }
    }
  }
  attr {
    key: "dtype"
    value {
      type: DT_INT32
    }
  }
  attr {
    key: "value"
    value {
      tensor {
        dtype: DT_INT32
        tensor_shape {
          dim {
            size: 1
          }
        }
        int_val: 1
      }
    }
  }
}
node {
  name: "dnn/input_from_feature_columns/input_layer/Acceleration_1/strided_slice/stack_2"
  op: "Const"
  attr {
    key: "_output_shapes"
    value {
      list {
        shape {
          dim {
            size: 1
          }
        }
      }
    }
  }
  attr {
    key: "dtype"
    value {
      type: DT_INT32
    }
  }
  attr {
    key: "value"
    value {
      tensor {
        dtype: DT_INT32
        tensor_shape {
          dim {
            size: 1
          }
        }
        int_val: 1
      }
    }
  }
}
node {
  name: "dnn/input_from_feature_columns/input_layer/Acceleration_1/strided_slice"
  op: "StridedSlice"
  input: "dnn/input_from_feature_columns/input_layer/Acceleration_1/Shape"
  input: "dnn/input_from_feature_columns/input_layer/Acceleration_1/strided_slice/stack"
  input: "dnn/input_from_feature_columns/input_layer/Acceleration_1/strided_slice/stack_1"
  input: "dnn/input_from_feature_columns/input_layer/Acceleration_1/strided_slice/stack_2"
  attr {
    key: "Index"
    value {
      type: DT_INT32
    }
  }
  attr {
    key: "T"
    value {
      type: DT_INT32
    }
  }
  attr {
    key: "_output_shapes"
    value {
      list {
        shape {
        }
      }
    }
  }
  attr {
    key: "begin_mask"
    value {
      i: 0
    }
  }
  attr {
    key: "ellipsis_mask"
    value {
      i: 0
    }
  }
  attr {
    key: "end_mask"
    value {
      i: 0
    }
  }
  attr {
    key: "new_axis_mask"
    value {
      i: 0
    }
  }
  attr {
    key: "shrink_axis_mask"
    value {
      i: 1
    }
  }
}
node {
  name: "dnn/input_from_feature_columns/input_layer/Acceleration_1/Reshape/shape/1"
  op: "Const"
  attr {
    key: "_output_shapes"
    value {
      list {
        shape {
        }
      }
    }
  }
  attr {
    key: "dtype"
    value {
      type: DT_INT32
    }
  }
  attr {
    key: "value"
    value {
      tensor {
        dtype: DT_INT32
        tensor_shape {
        }
        int_val: 1
      }
    }
  }
}
node {
  name: "dnn/input_from_feature_columns/input_layer/Acceleration_1/Reshape/shape"
  op: "Pack"
  input: "dnn/input_from_feature_columns/input_layer/Acceleration_1/strided_slice"
  input: "dnn/input_from_feature_columns/input_layer/Acceleration_1/Reshape/shape/1"
  attr {
    key: "N"
    value {
      i: 2
    }
  }
  attr {
    key: "T"
    value {
      type: DT_INT32
    }
  }
  attr {
    key: "_output_shapes"
    value {
      list {
        shape {
          dim {
            size: 2
          }
        }
      }
    }
  }
  attr {
    key: "axis"
    value {
      i: 0
    }
  }
}
node {
  name: "dnn/input_from_feature_columns/input_layer/Acceleration_1/Reshape"
  op: "Reshape"
  input: "dnn/input_from_feature_columns/input_layer/Acceleration_1/ExpandDims"
  input: "dnn/input_from_feature_columns/input_layer/Acceleration_1/Reshape/shape"
  attr {
    key: "T"
    value {
      type: DT_FLOAT
    }
  }
  attr {
    key: "Tshape"
    value {
      type: DT_INT32
    }
  }
  attr {
    key: "_output_shapes"
    value {
      list {
        shape {
          dim {
            size: -1
          }
          dim {
            size: 1
          }
        }
      }
    }
  }
}
node {
  name: "dnn/input_from_feature_columns/input_layer/Cylinders_1/ExpandDims/dim"
  op: "Const"
  attr {
    key: "_output_shapes"
    value {
      list {
        shape {
        }
      }
    }
  }
  attr {
    key: "dtype"
    value {
      type: DT_INT32
    }
  }
  attr {
    key: "value"
    value {
      tensor {
        dtype: DT_INT32
        tensor_shape {
        }
        int_val: -1
      }
    }
  }
}
node {
  name: "dnn/input_from_feature_columns/input_layer/Cylinders_1/ExpandDims"
  op: "ExpandDims"
  input: "dnn/Cast_1"
  input: "dnn/input_from_feature_columns/input_layer/Cylinders_1/ExpandDims/dim"
  attr {
    key: "T"
    value {
      type: DT_FLOAT
    }
  }
  attr {
    key: "Tdim"
    value {
      type: DT_INT32
    }
  }
  attr {
    key: "_output_shapes"
    value {
      list {
        shape {
          dim {
            size: -1
          }
          dim {
            size: 1
          }
        }
      }
    }
  }
}
node {
  name: "dnn/input_from_feature_columns/input_layer/Cylinders_1/Shape"
  op: "Shape"
  input: "dnn/input_from_feature_columns/input_layer/Cylinders_1/ExpandDims"
  attr {
    key: "T"
    value {
      type: DT_FLOAT
    }
  }
  attr {
    key: "_output_shapes"
    value {
      list {
        shape {
          dim {
            size: 2
          }
        }
      }
    }
  }
  attr {
    key: "out_type"
    value {
      type: DT_INT32
    }
  }
}
node {
  name: "dnn/input_from_feature_columns/input_layer/Cylinders_1/strided_slice/stack"
  op: "Const"
  attr {
    key: "_output_shapes"
    value {
      list {
        shape {
          dim {
            size: 1
          }
        }
      }
    }
  }
  attr {
    key: "dtype"
    value {
      type: DT_INT32
    }
  }
  attr {
    key: "value"
    value {
      tensor {
        dtype: DT_INT32
        tensor_shape {
          dim {
            size: 1
          }
        }
        int_val: 0
      }
    }
  }
}
node {
  name: "dnn/input_from_feature_columns/input_layer/Cylinders_1/strided_slice/stack_1"
  op: "Const"
  attr {
    key: "_output_shapes"
    value {
      list {
        shape {
          dim {
            size: 1
          }
        }
      }
    }
  }
  attr {
    key: "dtype"
    value {
      type: DT_INT32
    }
  }
  attr {
    key: "value"
    value {
      tensor {
        dtype: DT_INT32
        tensor_shape {
          dim {
            size: 1
          }
        }
        int_val: 1
      }
    }
  }
}
node {
  name: "dnn/input_from_feature_columns/input_layer/Cylinders_1/strided_slice/stack_2"
  op: "Const"
  attr {
    key: "_output_shapes"
    value {
      list {
        shape {
          dim {
            size: 1
          }
        }
      }
    }
  }
  attr {
    key: "dtype"
    value {
      type: DT_INT32
    }
  }
  attr {
    key: "value"
    value {
      tensor {
        dtype: DT_INT32
        tensor_shape {
          dim {
            size: 1
          }
        }
        int_val: 1
      }
    }
  }
}
node {
  name: "dnn/input_from_feature_columns/input_layer/Cylinders_1/strided_slice"
  op: "StridedSlice"
  input: "dnn/input_from_feature_columns/input_layer/Cylinders_1/Shape"
  input: "dnn/input_from_feature_columns/input_layer/Cylinders_1/strided_slice/stack"
  input: "dnn/input_from_feature_columns/input_layer/Cylinders_1/strided_slice/stack_1"
  input: "dnn/input_from_feature_columns/input_layer/Cylinders_1/strided_slice/stack_2"
  attr {
    key: "Index"
    value {
      type: DT_INT32
    }
  }
  attr {
    key: "T"
    value {
      type: DT_INT32
    }
  }
  attr {
    key: "_output_shapes"
    value {
      list {
        shape {
        }
      }
    }
  }
  attr {
    key: "begin_mask"
    value {
      i: 0
    }
  }
  attr {
    key: "ellipsis_mask"
    value {
      i: 0
    }
  }
  attr {
    key: "end_mask"
    value {
      i: 0
    }
  }
  attr {
    key: "new_axis_mask"
    value {
      i: 0
    }
  }
  attr {
    key: "shrink_axis_mask"
    value {
      i: 1
    }
  }
}
node {
  name: "dnn/input_from_feature_columns/input_layer/Cylinders_1/Reshape/shape/1"
  op: "Const"
  attr {
    key: "_output_shapes"
    value {
      list {
        shape {
        }
      }
    }
  }
  attr {
    key: "dtype"
    value {
      type: DT_INT32
    }
  }
  attr {
    key: "value"
    value {
      tensor {
        dtype: DT_INT32
        tensor_shape {
        }
        int_val: 1
      }
    }
  }
}
node {
  name: "dnn/input_from_feature_columns/input_layer/Cylinders_1/Reshape/shape"
  op: "Pack"
  input: "dnn/input_from_feature_columns/input_layer/Cylinders_1/strided_slice"
  input: "dnn/input_from_feature_columns/input_layer/Cylinders_1/Reshape/shape/1"
  attr {
    key: "N"
    value {
      i: 2
    }
  }
  attr {
    key: "T"
    value {
      type: DT_INT32
    }
  }
  attr {
    key: "_output_shapes"
    value {
      list {
        shape {
          dim {
            size: 2
          }
        }
      }
    }
  }
  attr {
    key: "axis"
    value {
      i: 0
    }
  }
}
node {
  name: "dnn/input_from_feature_columns/input_layer/Cylinders_1/Reshape"
  op: "Reshape"
  input: "dnn/input_from_feature_columns/input_layer/Cylinders_1/ExpandDims"
  input: "dnn/input_from_feature_columns/input_layer/Cylinders_1/Reshape/shape"
  attr {
    key: "T"
    value {
      type: DT_FLOAT
    }
  }
  attr {
    key: "Tshape"
    value {
      type: DT_INT32
    }
  }
  attr {
    key: "_output_shapes"
    value {
      list {
        shape {
          dim {
            size: -1
          }
          dim {
            size: 1
          }
        }
      }
    }
  }
}
node {
  name: "dnn/input_from_feature_columns/input_layer/Displacement_1/ExpandDims/dim"
  op: "Const"
  attr {
    key: "_output_shapes"
    value {
      list {
        shape {
        }
      }
    }
  }
  attr {
    key: "dtype"
    value {
      type: DT_INT32
    }
  }
  attr {
    key: "value"
    value {
      tensor {
        dtype: DT_INT32
        tensor_shape {
        }
        int_val: -1
      }
    }
  }
}
node {
  name: "dnn/input_from_feature_columns/input_layer/Displacement_1/ExpandDims"
  op: "ExpandDims"
  input: "dnn/Cast_2"
  input: "dnn/input_from_feature_columns/input_layer/Displacement_1/ExpandDims/dim"
  attr {
    key: "T"
    value {
      type: DT_FLOAT
    }
  }
  attr {
    key: "Tdim"
    value {
      type: DT_INT32
    }
  }
  attr {
    key: "_output_shapes"
    value {
      list {
        shape {
          dim {
            size: -1
          }
          dim {
            size: 1
          }
        }
      }
    }
  }
}
node {
  name: "dnn/input_from_feature_columns/input_layer/Displacement_1/Shape"
  op: "Shape"
  input: "dnn/input_from_feature_columns/input_layer/Displacement_1/ExpandDims"
  attr {
    key: "T"
    value {
      type: DT_FLOAT
    }
  }
  attr {
    key: "_output_shapes"
    value {
      list {
        shape {
          dim {
            size: 2
          }
        }
      }
    }
  }
  attr {
    key: "out_type"
    value {
      type: DT_INT32
    }
  }
}
node {
  name: "dnn/input_from_feature_columns/input_layer/Displacement_1/strided_slice/stack"
  op: "Const"
  attr {
    key: "_output_shapes"
    value {
      list {
        shape {
          dim {
            size: 1
          }
        }
      }
    }
  }
  attr {
    key: "dtype"
    value {
      type: DT_INT32
    }
  }
  attr {
    key: "value"
    value {
      tensor {
        dtype: DT_INT32
        tensor_shape {
          dim {
            size: 1
          }
        }
        int_val: 0
      }
    }
  }
}
node {
